<unk>	0
<s>	0
</s>	0
/	-2.63158
.	-2.68242
-	-3.085
s	-3.35666
_	-3.60199
://	-3.63122
▁http	-3.64807
pdf	-3.72495
www	-4.60182
com	-4.67506
a	-4.77937
=	-4.8034
d	-4.85389
e	-4.86074
D	-4.87467
content	-4.9564
%20	-5.00294
c	-5.06173
uploads	-5.07911
f	-5.08906
b	-5.08913
wp	-5.18137
?	-5.19349
A	-5.24011
%	-5.35784
B	-5.38713
&	-5.40652
2	-5.40941
E	-5.49502
3	-5.51492
C	-5.51895
5	-5.55761
1	-5.56245
de	-5.58102
0	-5.58269
org	-5.599
4	-5.67708
id	-5.68985
6	-5.69918
9	-5.71102
8	-5.78745
t	-5.86332
file	-5.86812
7	-5.88138
i	-5.89064
download	-5.92511
S	-5.93986
o	-5.95128
p	-5.964
files	-5.96916
w	-6.06187
n	-6.07857
m	-6.08252
F	-6.11888
php	-6.12551
l	-6.21765
r	-6.23802
in	-6.25497
+	-6.27871
h	-6.28429
v	-6.33419
P	-6.3741
y	-6.41469
co	-6.41686
x	-6.43047
g	-6.43811
%3	-6.44171
k	-6.4622
u	-6.48277
j	-6.52522
en	-6.5257
M	-6.53824
8%	-6.55205
N	-6.55484
cgi	-6.57836
es	-6.62228
R	-6.62508
T	-6.66641
0%	-6.67316
gov	-6.68164
media	-6.71933
H	-6.72278
I	-6.72692
er	-6.7314
it	-6.76063
z	-6.78348
L	-6.78741
view	-6.79387
net	-6.82478
type	-6.83673
W	-6.83692
bin	-6.85276
V	-6.86221
uk	-6.88397
G	-6.90602
ca	-6.9132
and	-6.91458
K	-6.92146
data	-6.94139
re	-7.04665
q	-7.07382
of	-7.08115
/2021/05/	-7.08317
pl	-7.11104
3%	-7.11177
fr	-7.11821
jp	-7.12604
sites	-7.12694
File	-7.12797
at	-7.13169
%5	-7.13759
Z	-7.16269
the	-7.20153
O	-7.21099
on	-7.22836
ing	-7.22894
Q	-7.23154
be	-7.23487
edu	-7.24257
im	-7.2595
ch	-7.26424
Y	-7.28041
U	-7.29302
/2021/07/	-7.29338
assets	-7.30106
X	-7.31345
1.	-7.33278
ru	-7.35258
pr	-7.35319
article	-7.35346
documents	-7.3563
la	-7.36189
to	-7.36362
ba	-7.36446
au	-7.38494
do	-7.38745
upload	-7.39385
docs	-7.40218
/2021/06/	-7.42059
eu	-7.43315
Id	-7.44284
ar	-7.44634
ac	-7.45223
7%	-7.45237
images	-7.47339
asp	-7.47466
ro	-7.48507
news	-7.50845
web	-7.51082
br	-7.51571
default	-7.51744
Document	-7.51744
PDF	-7.51776
%2	-7.52172
ma	-7.54562
se	-7.54924
an	-7.56347
01	-7.56582
or	-7.56776
5%	-7.56898
nt	-7.57393
J	-7.57949
ad	-7.58825
ver	-7.60936
ed	-7.61022
20	-7.61113
enrd	-7.62012
index	-7.62035
=1	-7.62166
4%	-7.62774
doc	-7.64123
cz	-7.64152
for	-7.65583
al	-7.6627
ce	-7.66331
▁	-7.66337
https	-7.66359
ge	-7.66453
View	-7.67587
us	-7.71016
st	-7.71376
manual	-7.71589
online	-7.73467
img	-7.74148
os	-7.75127
2021.	-7.76227
BA	-7.76364
bd	-7.7684
downloads	-7.76841
admin	-7.7712
te	-7.77503
one	-7.7778
0%9	-7.78135
EF	-7.7824
21	-7.78379
da	-7.78686
el	-7.7934
field	-7.79681
cc	-7.79865
na	-7.80077
lo	-7.80273
BD	-7.81693
13	-7.81779
ka	-7.81877
nl	-7.82056
21.	-7.82718
il	-7.83147
17	-7.83592
le	-7.84456
EN	-7.84766
2020.	-7.87035
29	-7.87697
amp	-7.8778
document	-7.87898
BF	-7.88632
56	-7.88756
is	-7.9045
2.	-7.92239
ne	-7.92768
go	-7.93233
Report	-7.93509
dl	-7.94773
th	-7.94958
ae	-7.95225
11	-7.95497
open	-7.95686
/2021/	-7.99057
con	-7.99354
42	-7.9971
no	-7.99743
fa	-7.99755
mo	-7.99874
27	-7.99912
ta	-8.00114
~	-8.01173
cd	-8.01432
-2021-	-8.03782
ation	-8.04473
fi	-8.04708
55	-8.04947
und	-8.06411
ea	-8.06448
31	-8.07456
50	-8.07627
ko	-8.0768
ec	-8.08211
public	-8.08387
9%	-8.08958
/?	-8.09339
bf	-8.09441
portal	-8.09557
by	-8.0957
Re	-8.10409
35	-8.10449
tion	-8.10861
%20-%20	-8.11582
bb	-8.1181
hu	-8.11915
za	-8.12334
1/	-8.12376
88	-8.12436
08	-8.13103
plan	-8.13551
si	-8.14577
ia	-8.14717
get	-8.14795
-1.	-8.16953
up	-8.18122
pt	-8.1835
ashx	-8.18631
html	-8.18666
res	-8.18748
guide	-8.18765
name	-8.18833
cdn	-8.1909
my	-8.19403
49	-8.19922
db	-8.20433
ten	-8.20652
19	-8.21241
cf	-8.21283
ct	-8.21299
ie	-8.21967
io	-8.23205
app	-8.23483
as	-8.24442
me	-8.24449
AB	-8.2492
attachment	-8.2579
-4	-8.2587
/2021/03/	-8.259
45	-8.26016
ment	-8.28338
3.	-8.28395
per	-8.2842
80	-8.28627
group	-8.28683
ja	-8.28844
-2021.	-8.28995
info	-8.29825
30	-8.30203
24	-8.3045
et	-8.30619
66	-8.31017
37	-8.31291
form	-8.32051
CA	-8.32129
new	-8.32271
ov	-8.3247
bu	-8.32543
ni	-8.32627
AD	-8.32995
enter	-8.33221
02	-8.3372
ho	-8.33857
fc	-8.34337
ke	-8.34774
33	-8.3497
2%	-8.35204
cm	-8.3521
pa	-8.35536
6%	-8.36073
72	-8.36094
service	-8.36476
api	-8.37002
09	-8.37041
ref	-8.37053
93	-8.37067
press	-8.37224
search	-8.37463
hal	-8.38023
ti	-8.38026
po	-8.3825
9%8	-8.39114
print	-8.39424
38	-8.39485
rs	-8.3949
keywords	-8.39708
application	-8.39731
wordpress	-8.39733
title	-8.39738
Download	-8.39956
key	-8.39982
CC	-8.40026
item	-8.4003
2018.	-8.40046
user	-8.40118
action	-8.40158
df	-8.40939
ra	-8.41072
fe	-8.41929
ly	-8.42035
li	-8.42364
83	-8.42592
71	-8.43981
kr	-8.44035
wa	-8.44244
ies	-8.44974
85	-8.45086
ee	-8.45165
om	-8.45445
28	-8.45452
ri	-8.45868
-%	-8.45965
all	-8.4664
12	-8.47609
05	-8.48074
cont	-8.48121
hr	-8.48236
module	-8.48993
ama	-8.49079
14	-8.49624
un	-8.49636
AF	-8.49805
2021	-8.49968
ph	-8.50226
=5	-8.50605
static	-8.52073
/2021/04/	-8.52244
newsletter	-8.52244
/2021/01/	-8.52255
version	-8.52279
Key	-8.52325
1%	-8.52333
RE	-8.52477
81	-8.52635
mx	-8.53636
eb	-8.53998
nu	-8.54129
75	-8.54693
AR	-8.54751
-2020	-8.54781
89	-8.55071
/2	-8.55943
ir	-8.56001
vi	-8.56021
ju	-8.5667
lu	-8.56919
/1	-8.56945
06	-8.57101
61	-8.57362
63	-8.57779
32	-8.58114
91	-8.58175
js	-8.58218
aws	-8.58326
ua	-8.58408
du	-8.58656
town	-8.59011
76	-8.59358
ine	-8.59554
fd	-8.59765
ns	-8.59976
ef	-8.6005
aa	-8.60383
25	-8.60482
70	-8.60707
fb	-8.60865
ik	-8.61176
cat	-8.61272
40	-8.61567
23	-8.61599
Cent	-8.61734
26	-8.61831
99	-8.62164
No	-8.62243
98	-8.62457
site	-8.62719
gr	-8.62918
journal	-8.63436
ET	-8.63457
product	-8.63538
page	-8.63939
ame	-8.64004
bg	-8.64378
able	-8.64894
/5	-8.65052
sk	-8.6536
ung	-8.65391
46	-8.65453
dd	-8.65701
VA	-8.66482
July	-8.66516
Flyer	-8.66517
digital	-8.66526
visual	-8.66532
Item	-8.66533
inline	-8.66624
export	-8.66625
ession	-8.66634
final	-8.66704
OT	-8.66812
ning	-8.66876
Form	-8.66881
34	-8.6691
lib	-8.67065
bip	-8.6724
club	-8.67335
ext	-8.67425
BC	-8.67499
ftp	-8.67789
ak	-8.68013
pub	-8.68537
AN	-8.68574
zon	-8.68823
ul	-8.68871
=1&	-8.68915
meeting	-8.69201
60	-8.69351
07	-8.70018
va	-8.7003
dm	-8.70146
/14	-8.70619
ws	-8.70692
LL	-8.70847
ent	-8.71209
our	-8.71223
que	-8.71277
ins	-8.71499
bi	-8.7156
=3	-8.71687
-2020-	-8.71844
Pro	-8.71922
53	-8.72424
common	-8.7319
10	-8.73286
dc	-8.73709
DE	-8.73822
ID	-8.73944
di	-8.74595
ab	-8.74674
um	-8.74728
tic	-8.74783
legis	-8.75076
sa	-8.75323
cl	-8.75418
15	-8.75772
00	-8.76188
1&	-8.76224
der	-8.7655
3-	-8.76908
iz	-8.77064
9.	-8.77175
mz	-8.7722
ance	-8.77522
we	-8.77527
ff	-8.7794
ap	-8.78332
ion	-8.7834
SP	-8.7851
ess	-8.78793
ite	-8.79
%84%	-8.7915
ic	-8.79297
%20%	-8.79613
6.	-8.79922
AA	-8.80185
67	-8.80252
cr	-8.80343
74	-8.80469
event	-8.80503
22	-8.80619
ku	-8.80755
fo	-8.81004
ES	-8.81025
16	-8.81102
rep	-8.81256
ex	-8.81405
Ff	-8.8285
Be	-8.83031
_2_	-8.83091
berg	-8.83095
health	-8.831
54	-8.83119
Judgement	-8.83182
FINAL	-8.83183
storage	-8.83185
science	-8.83191
library	-8.832
/2021/02/	-8.8321
II	-8.83339
with	-8.83395
format	-8.83399
engine	-8.8347
jM	-8.83592
academic	-8.83845
dis	-8.84037
gob	-8.84085
94	-8.84451
ist	-8.84681
law	-8.85159
/2018/	-8.85193
kat	-8.85291
land	-8.85323
Acc	-8.85742
BB	-8.85968
ng	-8.8597
77	-8.85999
cy	-8.86109
ven	-8.8613
JU	-8.86747
Web	-8.86821
8&	-8.86849
RY	-8.8733
ag	-8.87333
gi	-8.87503
_2021	-8.8788
attachments	-8.88263
sc	-8.88361
ox	-8.88643
af	-8.88857
ola	-8.88931
LS	-8.8916
BE	-8.89336
math	-8.89435
DA	-8.89452
310	-8.89524
96	-8.89872
ton	-8.89878
dela	-8.89884
les	-8.89911
0-	-8.90073
ix	-8.90111
EX	-8.90312
MA	-8.90494
dam	-8.90661
jm	-8.90669
ern	-8.90796
AL	-8.91309
stadt	-8.91379
18	-8.91386
73	-8.91778
%8	-8.91969
01.	-8.92536
5%8	-8.92543
1-	-8.92667
ep	-8.92756
xt	-8.92801
ers	-8.93017
av	-8.93018
ur	-8.9355
4/	-8.93576
mi	-8.94068
lab	-8.94183
ial	-8.94327
bc	-8.94333
rad	-8.94618
ville	-8.94685
95	-8.94902
78	-8.95112
oc	-8.95436
TI	-8.95636
PA	-8.95958
AE	-8.96114
ug	-8.96309
/15	-8.9653
text	-8.96654
51	-8.96819
inter	-8.97037
op	-8.97081
4-	-8.97267
7&	-8.97518
=9	-8.97633
62	-8.97791
ips	-8.97846
44	-8.9786
em	-8.97911
uni	-8.98809
log	-8.98893
6&	-8.99016
cion	-8.99092
IN	-8.99486
79	-9.0006
De	-9.00269
ula	-9.00692
04	-9.0081
pc	-9.01005
AC	-9.01024
leg	-9.01087
tp	-9.01159
og	-9.01293
ty	-9.01414
tre	-9.01648
mont	-9.01811
=7	-9.02028
201	-9.02186
conte	-9.02228
paper	-9.02473
:	-9.02558
mis	-9.02803
sen	-9.02867
-5	-9.03176
Archive	-9.03183
Meeting	-9.03184
Committee	-9.03184
Policy	-9.03185
projekt	-9.03186
Online	-9.03188
Agenda	-9.03191
ignature	-9.03199
sheet	-9.03209
cityof	-9.03283
wood	-9.0333
9%85%	-9.03343
List	-9.03352
nr	-9.03355
option	-9.03372
3%83%	-9.03413
Exp	-9.0342
blob	-9.03434
mar	-9.03481
secure	-9.03499
catalog	-9.03513
litera	-9.0352
resources	-9.03586
url	-9.03662
west	-9.03684
review	-9.03723
server	-9.03767
getfile	-9.03772
filename	-9.0387
county	-9.03937
neb	-9.04185
publications	-9.04308
=0&	-9.04344
Su	-9.04662
Get	-9.04744
rem	-9.04935
tu	-9.04975
ISO	-9.04988
ture	-9.04988
ask	-9.05002
kyu	-9.05148
182	-9.05158
%202021.	-9.05233
una	-9.05252
tech	-9.05268
area	-9.05367
gen	-9.05709
TA	-9.05971
cloud	-9.06018
ssl	-9.06115
In	-9.06377
down	-9.06983
97	-9.07107
pubs	-9.07288
xn	-9.07593
cus	-9.07805
pages	-9.07825
-2021-0	-9.08023
tw	-9.08115
iren	-9.08748
%80%	-9.08778
ki	-9.08837
bad	-9.09227
_2	-9.09327
bea	-9.09344
nd	-9.0951
03	-9.0955
ina	-9.09692
apps	-9.09914
-1-	-9.09934
aus	-9.10213
41	-9.10251
din	-9.10691
shi	-9.1101
%9	-9.11054
OM	-9.1121
mw	-9.11342
ste	-9.11762
/20	-9.11775
3_	-9.12093
909	-9.12249
par	-9.1265
-2.	-9.12658
ux	-9.12786
test	-9.12891
ires	-9.12965
ll	-9.13384
AI	-9.13412
am	-9.13543
mod	-9.13708
CP	-9.1374
information	-9.139
CE	-9.14019
189	-9.14135
NJ	-9.14582
line	-9.14622
59	-9.15309
own	-9.15533
tt	-9.15613
ST	-9.15962
oa	-9.16096
age	-9.16215
ci	-9.16225
nz	-9.1625
87	-9.16403
council	-9.16584
mm	-9.16961
/2018/0	-9.17206
ner	-9.17756
_1.	-9.17884
ure	-9.18001
ow	-9.18178
est	-9.18196
Ver	-9.18343
lang	-9.18412
wd	-9.18578
TO	-9.18587
Po	-9.18872
PV	-9.19024
110	-9.19033
_2021_	-9.19317
mt	-9.19561
ier	-9.19902
Wa	-9.19923
ha	-9.19968
5-	-9.20301
ill	-9.20437
ter	-9.2049
13.	-9.20643
fer	-9.20679
Tra	-9.20725
/7	-9.20825
jk	-9.20989
90	-9.2099
=2	-9.21166
list	-9.21227
ments	-9.2146
58	-9.21618
lv	-9.21686
MO	-9.21695
ction	-9.21798
ft	-9.21824
ette	-9.21838
su	-9.21872
-1	-9.21877
092	-9.21988
ach	-9.21999
cb	-9.22021
iver	-9.22279
7%9	-9.22355
MD	-9.22738
2021-	-9.22928
=0	-9.2298
92	-9.23343
6/	-9.2346
prod	-9.23656
gro	-9.23713
/2020/	-9.23765
bo	-9.23798
air	-9.23813
park	-9.23838
ology	-9.23863
48	-9.23864
ME	-9.23877
oken	-9.24126
del	-9.24319
ga	-9.24331
52	-9.24399
sd	-9.24706
Date	-9.2478
hk	-9.24818
2-	-9.25025
Work	-9.25098
book	-9.25965
JA	-9.25967
sach	-9.26021
ue	-9.26123
art	-9.26355
1%8	-9.26566
Mj	-9.26826
eld	-9.26878
7.	-9.26942
UK	-9.27102
MH	-9.27139
meetings	-9.27144
836	-9.27396
%87%	-9.27424
0%90%	-9.27626
vis	-9.27745
amtsblatt	-9.28182
eltlager	-9.28182
world	-9.28184
dokument	-9.28184
minutes	-9.28185
LETTER	-9.28186
October	-9.28187
people	-9.28188
global	-9.28188
twenty	-9.2819
/2019/10/	-9.28191
Safety	-9.28192
parish	-9.28194
/2020/12/	-9.28195
house	-9.28198
power	-9.28201
policy	-9.28209
front	-9.2821
Paper	-9.28223
original	-9.28233
Home	-9.28241
IRF	-9.2825
La	-9.28267
reading	-9.28277
covid	-9.28294
Show	-9.283
website	-9.28315
City	-9.28329
inria	-9.28337
tzung	-9.28348
spec	-9.28368
4.	-9.28379
schule	-9.28388
kultur	-9.28396
vc	-9.2841
detail	-9.28427
Case	-9.28462
impress	-9.28467
May	-9.28478
005	-9.28658
zum	-9.28685
respon	-9.28819
solutions	-9.28922
dos	-9.29022
heit	-9.2905
043	-9.29063
home	-9.29158
chi	-9.2923
TZ	-9.29286
other	-9.29307
GZ	-9.29463
Content	-9.29481
ware	-9.29507
node	-9.29513
ley	-9.2953
diploma	-9.29699
green	-9.2974
life	-9.2986
229	-9.29863
show	-9.29878
252	-9.29888
El	-9.29961
_2015	-9.30005
=60	-9.30073
57	-9.30136
ECA	-9.30321
akler	-9.30322
love	-9.30428
answers	-9.30449
3/	-9.30503
encia	-9.30711
system	-9.30746
vivi	-9.30822
let	-9.30831
9%86	-9.30844
pro	-9.31082
/2017/	-9.31121
xx	-9.31196
-2019.	-9.31429
PR	-9.31433
QM	-9.31649
HS	-9.31703
preview	-9.31721
read	-9.31784
src	-9.31912
%2016	-9.31941
jj	-9.31944
Pri	-9.3201
rev	-9.32427
ken	-9.3244
GA	-9.32778
/3	-9.33052
min	-9.33067
pu	-9.33074
asia	-9.33231
coes	-9.33348
=&	-9.33615
CH	-9.34065
22.	-9.34195
ato	-9.34276
FU	-9.34281
868	-9.34374
printpdf	-9.34469
ve	-9.34483
roma	-9.34601
vy	-9.34683
Pr	-9.34684
43	-9.34753
cms	-9.34975
kg	-9.34999
dk	-9.35009
UR	-9.35121
num	-9.35337
GF	-9.35758
dbv	-9.35798
ya	-9.35822
presse	-9.35881
yu	-9.36207
=89	-9.36436
=4	-9.36485
cn	-9.36643
/2014/0	-9.36691
camp	-9.36741
prop	-9.36821
MENT	-9.37093
axi	-9.37162
fu	-9.37218
IE	-9.37335
NE	-9.37365
ith	-9.37475
1%2	-9.37534
56&	-9.3755
_-_	-9.37616
mb	-9.37677
ade	-9.37959
84	-9.3839
Doc	-9.38474
exp	-9.38823
documento	-9.39065
ps	-9.39115
wy	-9.39135
RD	-9.39157
ATE	-9.39203
18.	-9.39278
/100	-9.39289
dome	-9.39653
OR	-9.39668
08.	-9.40035
origin	-9.40568
WZ	-9.40879
-9	-9.41085
ON	-9.41148
yO	-9.41246
out	-9.41429
rat	-9.41654
_06	-9.41707
pi	-9.41766
=32	-9.41873
SO	-9.41978
2&	-9.41988
/10	-9.42155
lin	-9.42313
EC	-9.42397
24.	-9.42512
car	-9.42683
acion	-9.42686
4&	-9.43064
DOC	-9.43235
rk	-9.43448
zu	-9.43479
PRO	-9.43504
comp	-9.43682
EM	-9.43734
-30-	-9.4395
/162	-9.44062
Plan	-9.44066
nic	-9.44136
=54	-9.44452
posi	-9.44483
agb	-9.44538
2020	-9.4506
ingen	-9.45249
upro	-9.45257
DY	-9.45362
/06	-9.45364
giu	-9.45553
2012	-9.4573
pz	-9.45787
064	-9.45836
Ym	-9.45931
las	-9.46084
iso	-9.46125
DB	-9.4613
tru	-9.46228
NT	-9.46382
100	-9.46435
mat	-9.46698
ook	-9.46867
SG	-9.46931
set	-9.4717
tr	-9.47188
stream	-9.47249
sci	-9.47477
ica	-9.47551
man	-9.47632
=10	-9.47678
oz	-9.47705
seer	-9.47726
FI	-9.47826
ien	-9.47839
ky	-9.47977
ish	-9.48066
kt	-9.48184
36	-9.48242
/2019	-9.4841
vt	-9.48487
erc	-9.48506
RAS	-9.48526
lt	-9.48677
Nz	-9.48687
feb	-9.48775
articles	-9.48896
lug	-9.48898
ts	-9.49043
ol	-9.49101
2021_	-9.49226
125	-9.4941
gal	-9.4975
aff	-9.49813
PH	-9.5011
461	-9.50447
CI	-9.50635
241	-9.50766
9-4	-9.50815
dia	-9.5095
nc	-9.51029
mer	-9.51111
64	-9.51129
ry	-9.51145
arch	-9.51371
zg	-9.51485
TOS	-9.51599
ub	-9.51671
LO	-9.51676
Al	-9.52267
ood	-9.5243
ster	-9.52704
9%88	-9.53028
ries	-9.53104
vg	-9.53131
ich	-9.53183
inc	-9.53591
wb	-9.5365
ique	-9.53715
he	-9.53837
IS	-9.53862
RES	-9.53867
_2020_	-9.5419
tK	-9.54644
put	-9.54665
US	-9.54682
343	-9.55161
RT	-9.55288
OS	-9.55373
side	-9.55665
431	-9.55759
6%9	-9.5593
TN	-9.55962
_1	-9.56007
VI	-9.56057
can	-9.56067
iser	-9.56228
363	-9.56232
5-4	-9.56271
def	-9.56309
Gl	-9.5639
turn	-9.56629
trans	-9.56871
cu	-9.56973
827	-9.57145
dr	-9.57222
main	-9.5725
owa	-9.57358
har	-9.5736
RI	-9.57362
edition	-9.57505
ham	-9.57611
pb	-9.57776
IP	-9.57883
change	-9.58086
viewdoc	-9.58368
sch	-9.58372
ou	-9.58424
mf	-9.58434
mau	-9.58435
answer	-9.58449
-2-	-9.58671
time	-9.58716
image	-9.58726
=15	-9.58755
ney	-9.58793
archive	-9.58798
UM	-9.59186
MEN	-9.59197
-2021	-9.59224
hb	-9.59244
qui	-9.5932
OU	-9.59393
9%86%	-9.59471
vr	-9.5977
allo	-9.60052
val	-9.60169
623	-9.60435
aW	-9.60538
ai	-9.60705
analys	-9.6073
975	-9.60765
2016-	-9.6077
116	-9.60896
atalog	-9.60971
tc	-9.61031
ulletin	-9.61034
ice	-9.61164
psu	-9.61169
%81	-9.61346
St	-9.61351
ove	-9.61479
measure	-9.61497
AKIA	-9.615
category	-9.61508
nachrichten	-9.61512
Mathemati	-9.61514
decidim	-9.61514
descarga	-9.61515
output	-9.61515
remotesensing	-9.61515
Calendar	-9.61516
Topics	-9.61516
brochure	-9.61516
morones	-9.61516
Application	-9.61517
Brochure	-9.61517
COVID	-9.61517
identification	-9.61517
MISSION	-9.61518
cinema	-9.61518
Audit	-9.61518
Minutes	-9.61518
breclav	-9.61518
integra	-9.61518
Package	-9.61519
Summer	-9.61519
build	-9.61519
management	-9.61519
nutrition	-9.61519
toyota	-9.61519
Newsletter	-9.6152
Summary	-9.6152
africa	-9.6152
ellautom	-9.61521
triebs	-9.61521
/2020/03/	-9.61523
Guidelines	-9.61524
agenda	-9.61524
engineering	-9.61525
/2020/09/	-9.61527
general	-9.61527
Schul	-9.61529
notice	-9.61529
Course	-9.61532
Team	-9.61538
repair	-9.61539
floor	-9.61551
ohio	-9.61551
Final	-9.61552
lighting	-9.61553
april	-9.61553
guidelines	-9.61553
Portal	-9.61559
Notice	-9.6156
telechargement	-9.61561
president	-9.6157
learning	-9.61572
workshop	-9.61574
Dokument	-9.61576
AWS	-9.61577
Time	-9.61584
design	-9.61586
community	-9.61591
resultat	-9.61601
WEB	-9.61603
eattle	-9.61606
02-44	-9.61612
jobs	-9.61615
project	-9.61623
release	-9.61641
company	-9.61651
course	-9.61674
block	-9.61674
Inter	-9.61677
forum	-9.61687
4-14-	-9.61718
olding	-9.61726
524	-9.61727
reken	-9.6173
ACION	-9.61738
Info	-9.61739
ealthcare	-9.61746
APK	-9.61779
person	-9.61783
icity	-9.61792
sus	-9.61802
mission	-9.6186
Gran	-9.61861
Comp	-9.6187
link	-9.61905
gate	-9.61922
winter	-9.61948
good	-9.61991
htm	-9.61995
shire	-9.61996
_03_	-9.62001
flow	-9.62003
Job	-9.62013
MI	-9.62021
muse	-9.62055
august	-9.62115
john	-9.62121
cipi	-9.62147
athen	-9.62162
ht	-9.62203
apart	-9.6221
storm	-9.62227
IU	-9.62241
%202018/	-9.62245
works	-9.62258
Resources	-9.62273
pan	-9.62274
statements	-9.62289
ENG	-9.62335
Day	-9.62344
profile	-9.62355
The	-9.624
iety	-9.62404
elden	-9.62412
rules	-9.6242
668	-9.62513
Reg	-9.62521
share	-9.62527
ck	-9.62564
Guide	-9.62574
Map	-9.62641
Proce	-9.62697
Use	-9.62745
SC	-9.62745
ahr	-9.62799
All	-9.62858
warm	-9.62862
kZW	-9.62899
9&	-9.62931
Road	-9.63027
IX	-9.63031
safe	-9.63062
cate	-9.63069
nard	-9.63102
itation	-9.63112
/21	-9.63114
vision	-9.63133
ancer	-9.63217
sup	-9.63235
harley	-9.6324
menu	-9.63289
now	-9.63335
Programm	-9.63365
%20_%20	-9.63433
-3	-9.63471
olic	-9.63511
Print	-9.63519
DC	-9.63522
Asse	-9.63593
ecourt	-9.63605
%88	-9.63615
wpfd	-9.63685
=2016	-9.63695
209	-9.63744
pass	-9.63826
ari	-9.6383
LG	-9.63864
case	-9.63877
head	-9.63947
=123	-9.63951
kk	-9.6396
FLA	-9.63997
158	-9.64026
ig	-9.64058
maine	-9.64133
cdp	-9.64137
rock	-9.64163
post	-9.64186
ball	-9.64193
nav	-9.64195
tag	-9.64201
696	-9.64205
-2017-	-9.64231
base	-9.6426
med	-9.64311
CFR	-9.64389
KE	-9.64613
rim	-9.64619
300	-9.6493
LU	-9.64987
jz	-9.65076
jax	-9.65157
10.1	-9.65163
plug	-9.65164
send	-9.65191
Do	-9.65245
1%80	-9.65287
eln	-9.65296
ler	-9.65299
Iz	-9.65299
540	-9.65359
COM	-9.65368
DEC	-9.65371
dcb	-9.65396
IIC	-9.65416
burg	-9.65461
erz	-9.65461
pport	-9.65533
qm	-9.65546
ICO	-9.65658
amily	-9.6571
SI	-9.65719
nota	-9.65779
IT	-9.65788
eng	-9.65998
%2011	-9.66027
7/	-9.66074
UE	-9.66082
team	-9.661
lines	-9.66219
rosi	-9.66237
CQ	-9.66246
peter	-9.66284
=1626	-9.66285
wah	-9.66303
tra	-9.6645
RU	-9.66552
och	-9.66585
acao	-9.66732
702	-9.66917
HO	-9.66955
gh	-9.67068
zz	-9.67107
GH	-9.67153
sport	-9.67251
way	-9.67306
wel	-9.6733
ages	-9.67334
OA	-9.67391
1_	-9.67437
techni	-9.67579
nov	-9.67723
tal	-9.67736
2019/	-9.67766
166	-9.67838
bk	-9.67907
0-%	-9.67954
Card	-9.67962
kart	-9.68267
WO	-9.68497
hol	-9.68511
events	-9.68553
GV	-9.68648
2019.	-9.68673
ants	-9.68764
ey	-9.68903
bid	-9.69101
Memb	-9.69125
ots	-9.69305
Mo	-9.69366
NR	-9.6938
mag	-9.69483
ek	-9.6951
ech	-9.69583
products	-9.69675
result	-9.69722
Jv	-9.69768
=17	-9.69855
uw	-9.69882
ges	-9.69893
journals	-9.69905
nica	-9.70052
phy	-9.70126
PG	-9.70139
MS	-9.70155
20.	-9.70173
DX	-9.70185
scription	-9.70227
PF	-9.70373
098	-9.70388
Cap	-9.70397
2020_	-9.70432
uz	-9.70576
moto	-9.70581
101	-9.70662
kl	-9.70731
_5_	-9.70863
hs	-9.70931
col	-9.70961
gg	-9.71117
enco	-9.71137
AG	-9.71193
eme	-9.71198
TU	-9.71299
tor	-9.71301
Uv	-9.71396
_2019	-9.71533
KB	-9.71551
tsv	-9.71552
2020-	-9.71576
/2020	-9.71685
lot	-9.71699
sm	-9.71719
65	-9.71741
ut	-9.71774
03.	-9.71783
_12	-9.71809
xq	-9.71856
war	-9.71921
854	-9.71945
PL	-9.71973
jus	-9.72012
185	-9.72022
06.	-9.721
fX	-9.72134
Se	-9.72151
BT	-9.72193
%95%	-9.72233
770	-9.72311
585	-9.72311
796	-9.72392
9%9	-9.72407
219	-9.72424
02.	-9.7246
WW	-9.72487
istr	-9.72501
stand	-9.72528
kou	-9.72546
lay	-9.72608
_2018	-9.72667
060	-9.72696
Centr	-9.72773
/2015	-9.7281
TEM	-9.7286
disp	-9.72878
FB	-9.73038
sion	-9.73064
=8	-9.73088
Gu	-9.73145
dre	-9.73212
services	-9.73316
Ein	-9.73348
cap	-9.73391
2005	-9.73489
mes	-9.73524
port	-9.73572
Yn	-9.73588
/16	-9.73628
ATO	-9.73631
FF	-9.73665
sal	-9.73787
0712	-9.73806
warr	-9.73819
qc	-9.73875
ierung	-9.74031
oko	-9.74103
inf	-9.74184
ink	-9.74237
sia	-9.74331
-19.	-9.74334
JP	-9.7456
emm	-9.7463
studi	-9.74644
GC	-9.74794
YL	-9.74968
=14	-9.75108
335	-9.75175
ban	-9.75285
186	-9.75308
aero	-9.75418
isa	-9.75471
5/	-9.75578
merc	-9.75655
AVA	-9.75684
BP	-9.75793
ollection	-9.758
bor	-9.75834
2010	-9.75987
%202	-9.76055
JT	-9.76093
Ma	-9.761
aden	-9.76166
2_	-9.76399
RA	-9.76426
gu	-9.76546
nell	-9.77035
lan	-9.77068
255	-9.77087
114	-9.7709
stu	-9.77295
208	-9.775
qL	-9.7751
idad	-9.7753
arking	-9.77531
Zo	-9.77594
ini	-9.77858
back	-9.77862
EU	-9.77873
345	-9.77876
mou	-9.77973
ana	-9.78187
sela	-9.78608
TY	-9.78624
/2019/0	-9.78665
DO	-9.78684
%7	-9.78734
univ	-9.78742
2021-07-1	-9.78794
mit	-9.78894
lj	-9.78952
CV	-9.79169
Wr	-9.79257
hl	-9.79443
TM	-9.79529
lg	-9.79746
QR	-9.79887
Yh	-9.80052
52/	-9.80378
weg	-9.80565
ents	-9.80706
fab	-9.80831
19.	-9.80844
210	-9.80943
fund	-9.81102
WN	-9.81119
183	-9.81145
=16	-9.81211
vo	-9.81342
936	-9.81455
so	-9.81569
kan	-9.81602
70&	-9.81615
%82%	-9.81675
06/	-9.81783
ji	-9.82
947	-9.82027
1973	-9.8213
181	-9.82143
king	-9.82148
193	-9.82191
13_	-9.82419
qb	-9.82499
IDA	-9.82568
=82	-9.82588
even	-9.82704
82-	-9.82742
mu	-9.82765
897	-9.82847
%97%	-9.82864
cdf	-9.8295
TE	-9.83055
je	-9.83072
esri	-9.83154
DP	-9.83218
hub	-9.83225
oney	-9.83306
enc	-9.83424
von	-9.83495
Ph	-9.83544
ind	-9.83641
-05	-9.83821
ting	-9.83846
/000	-9.83963
IJ	-9.84075
=39	-9.84407
music	-9.84453
earch	-9.84456
Win	-9.84498
2/	-9.84592
=162	-9.84677
/116	-9.84713
808	-9.84772
code	-9.85055
goe	-9.851
ori	-9.85154
day	-9.85379
51&	-9.8547
82	-9.85607
ace	-9.85834
aQ	-9.8587
den	-9.85903
ROS	-9.85914
0001	-9.86044
740	-9.86079
LY	-9.86195
countr	-9.86402
super	-9.86455
ccb	-9.86504
dev	-9.86507
259	-9.86545
euro	-9.86716
Ob	-9.86723
EQ	-9.86726
rp	-9.8725
2019-	-9.87402
942	-9.87457
enant	-9.87705
LT	-9.87745
_1_	-9.87823
bfd	-9.87866
haus	-9.87943
Me	-9.88095
nv	-9.88195
211	-9.88251
=6	-9.88432
water	-9.88603
1709	-9.88624
nation	-9.88712
kun	-9.88737
Qq	-9.88786
021	-9.89113
cG	-9.89136
PU	-9.89282
087	-9.8929
nant	-9.89313
iv	-9.8938
zw	-9.89485
LW	-9.89521
sv	-9.89693
son	-9.89706
108	-9.89809
tos	-9.89854
0308	-9.8988
lima	-9.89923
tak	-9.90059
TRA	-9.90073
camara	-9.90082
/2005	-9.9018
Hi	-9.90244
QB	-9.90266
mT	-9.90301
5&	-9.9034
fl	-9.90377
/01_	-9.90519
stud	-9.90677
tica	-9.90828
201111	-9.91195
CD	-9.91226
PD	-9.91348
jor	-9.91377
urg	-9.91424
103	-9.91489
dorf	-9.91538
km	-9.91547
arte	-9.91642
cal	-9.9197
care	-9.92066
spark	-9.92109
0.	-9.92131
jan	-9.92268
10_	-9.92413
It	-9.92479
pd	-9.9264
nh	-9.92642
fee	-9.92657
4-4	-9.92663
ant	-9.92676
Car	-9.92752
bm	-9.92766
rt	-9.92906
SM	-9.92989
0020	-9.93342
comun	-9.93376
cs	-9.93531
28-	-9.93633
YT	-9.9371
ano	-9.93902
count	-9.93941
act	-9.93942
UT	-9.93982
ification	-9.94053
zo	-9.94095
tas	-9.94099
LA	-9.94099
07_	-9.94192
each	-9.94219
rc	-9.94348
uy	-9.94356
gree	-9.94474
104	-9.94563
gf	-9.94726
=13	-9.94747
ungen	-9.94781
ax	-9.94922
ative	-9.9495
gui	-9.95023
-17	-9.95518
stal	-9.95523
bel	-9.95523
tex	-9.95711
sta	-9.95828
156	-9.95954
isd	-9.96253
cle	-9.96437
347	-9.96751
Comm	-9.96766
mp	-9.96875
656	-9.97003
nce	-9.97107
JY	-9.97146
Har	-9.97293
mei	-9.97375
0&	-9.97491
ora	-9.97536
isten	-9.97542
FL	-9.977
Ha	-9.97743
eli	-9.98431
kano	-9.98631
SESSI	-9.98633
bei	-9.98647
/2013	-9.98828
euer	-9.98829
Vi	-9.98835
jd	-9.98963
Px	-9.99009
488	-9.99045
9/	-9.99056
ado	-9.99321
-05-2	-9.99682
ker	-9.998
radi	-9.99817
766	-9.99821
gs	-9.99938
15-	-9.99952
807	-10.001
LK	-10.001
ise	-10.0037
tura	-10.0049
bG	-10.0049
tung	-10.0053
197	-10.0067
Te	-10.0077
145	-10.0084
arter	-10.0096
RS	-10.0121
sten	-10.0124
sds	-10.0126
ell	-10.0127
nal	-10.0142
844	-10.016
ensa	-10.0164
SH	-10.0174
969	-10.0196
pri	-10.0213
YG	-10.0222
69	-10.0242
WM	-10.0252
arm	-10.0274
otk	-10.0312
ury	-10.032
Wi	-10.0325
059	-10.0331
nos	-10.0336
204	-10.0347
485	-10.0363
clouds	-10.0363
erm	-10.0383
esta	-10.0385
Fv	-10.0398
yw	-10.0405
ds	-10.0406
_3	-10.0412
mac	-10.0421
/0/	-10.0424
DEN	-10.0426
ive	-10.0439
JS	-10.0465
742	-10.0484
rC	-10.0496
/2021	-10.0506
aw	-10.054
tree	-10.054
466	-10.0551
Nov	-10.0555
+1	-10.0557
ember	-10.0558
Public	-10.0567
Sp	-10.0582
school	-10.0583
sha	-10.0583
lity	-10.0596
058	-10.0602
cg	-10.0615
aaf	-10.0616
ystem	-10.0618
ortland	-10.0627
Ag	-10.0627
ats	-10.0655
HE	-10.0674
123	-10.0678
Sh	-10.0696
are	-10.0701
sale	-10.0719
ois	-10.0728
spo	-10.0743
abi	-10.0751
ami	-10.0766
hir	-10.0766
airs	-10.0769
ei	-10.0783
945	-10.0783
333	-10.0786
dQ	-10.0792
813	-10.0799
part	-10.0805
UO	-10.0813
diplom	-10.0816
kit	-10.0823
class	-10.0829
354	-10.085
kh	-10.0851
967	-10.0865
publication	-10.0874
asset	-10.0875
mc	-10.0917
160	-10.0922
pon	-10.0925
script	-10.0927
tin	-10.0932
ada	-10.0937
rin	-10.0937
hera	-10.0949
605	-10.0957
Ins	-10.0962
kame	-10.0962
ebook	-10.0967
zur	-10.0995
454	-10.0997
Qu	-10.1006
Jo	-10.1019
ock	-10.1026
charl	-10.1035
bridge	-10.1041
797	-10.1042
008	-10.1048
644	-10.1051
RM	-10.1053
emein	-10.1058
2021/07	-10.1064
GI	-10.1068
70.	-10.107
Ch	-10.1074
4%8	-10.1076
hanges	-10.1083
raph	-10.1084
Con	-10.1084
161	-10.1089
develop	-10.1094
ulin	-10.1097
illin	-10.1101
east	-10.1115
how	-10.1125
source	-10.1133
storia	-10.1133
Media	-10.1143
padrinobook	-10.1144
kow	-10.1146
170	-10.1146
ealing	-10.1147
20210727	-10.1149
central	-10.1149
AwMS	-10.115
3%80%8	-10.115
okoritofulpos	-10.115
printContentPdf	-10.1151
dormitorios	-10.1151
fritidsnamnden	-10.1151
parcela	-10.1151
muestra	-10.1151
/2021-2022	-10.1151
ndividua	-10.1151
snedker	-10.1151
urriculum	-10.1151
/20210719033502	-10.1151
Adjunto	-10.1151
Special	-10.1151
annasure	-10.1151
arnaghese	-10.1151
laporan	-10.1151
saisonkalender	-10.1151
stmaryanacortes	-10.1151
zucker	-10.1151
bakjam	-10.1151
english	-10.1151
ergebnis	-10.1151
erklaerung	-10.1151
licitacion	-10.1151
/20200708	-10.1151
Property	-10.1151
chapter	-10.1151
definitiv	-10.1151
effect	-10.1151
lementary	-10.1151
organizations	-10.1151
proclamation	-10.1151
resolucion	-10.1151
schreibung	-10.1151
townofignacio	-10.1151
Checklist	-10.1152
-13-02868	-10.1152
Despatch	-10.1152
NOTICE	-10.1152
Sheet	-10.1152
Speise	-10.1152
Tutoria	-10.1152
auravita	-10.1152
bibliote	-10.1152
current	-10.1152
heilige	-10.1152
infoneeds	-10.1152
praktik	-10.1152
strasse	-10.1152
Board	-10.1152
-9-136	-10.1152
/19-508	-10.1152
2010-2011	-10.1152
5750754	-10.1152
August	-10.1152
Current	-10.1152
Einzel	-10.1152
January	-10.1152
Politica	-10.1152
Privacy	-10.1152
Sommer	-10.1152
Toolkit	-10.1152
complaint	-10.1152
diamant	-10.1152
dynacoat	-10.1152
entilhomme	-10.1152
eseprobe	-10.1152
exordium	-10.1152
irtschaft	-10.1152
observator	-10.1152
onyatt	-10.1152
ovanje	-10.1152
pecific	-10.1152
pnhrs	-10.1152
practice	-10.1152
problem	-10.1152
richmond	-10.1152
structure	-10.1152
trekking	-10.1152
ucGRm	-10.1152
versicherung	-10.1152
wellness	-10.1152
Rundschreiben	-10.1152
%202009%20	-10.1152
Financ	-10.1152
Issue	-10.1152
Mediadaten	-10.1152
Service	-10.1152
_2021-06-1	-10.1152
different	-10.1152
gallery	-10.1152
husqvarna	-10.1152
insurance	-10.1152
itglied	-10.1152
memorial	-10.1152
reuzau	-10.1152
touchscreen	-10.1152
-280721-2144-18	-10.1152
Certificate	-10.1152
Level	-10.1152
MARKET	-10.1152
Materials	-10.1152
SOLUTI	-10.1152
UserDocs	-10.1152
college	-10.1152
dorohoi	-10.1152
haftpflicht	-10.1152
jauge	-10.1152
llegato	-10.1152
matricula	-10.1152
mendment	-10.1152
mielke	-10.1152
ozbeszerzes	-10.1152
primaria	-10.1152
regulation	-10.1152
slavery	-10.1152
/2013/02/	-10.1152
General	-10.1152
Office	-10.1152
Sunday	-10.1152
anstaltungsmappe	-10.1152
frankenthal	-10.1152
furious	-10.1152
gckc	-10.1152
konferenc	-10.1152
laymaker	-10.1152
onstitution	-10.1152
parrocchia	-10.1152
poljoprivred	-10.1152
rtikel	-10.1152
yeovil	-10.1152
/198.71.233.1	-10.1152
White	-10.1152
ilmoitu	-10.1152
investiga	-10.1152
keeping	-10.1152
longnow	-10.1152
premium	-10.1152
troyan	-10.1152
uranium	-10.1152
Conflict	-10.1152
advance	-10.1152
consort	-10.1152
restaurant	-10.1152
%201215	-10.1152
/2017/08/	-10.1152
Student	-10.1152
citizen	-10.1152
credit	-10.1152
ijgc	-10.1152
repository	-10.1152
workbook	-10.1152
News	-10.1152
/2013/2013	-10.1152
outhern	-10.1152
-005056	-10.1152
16269	-10.1152
atenblatt	-10.1152
consult	-10.1152
material	-10.1152
twisto	-10.1152
usikschule	-10.1152
Austrian	-10.1153
Economics	-10.1153
Liber	-10.1153
kowski	-10.1153
psych	-10.1153
Inhalte	-10.1153
employ	-10.1153
false	-10.1153
investor	-10.1153
mechanic	-10.1153
Update	-10.1153
church	-10.1153
delibera	-10.1153
easant	-10.1153
ireless	-10.1153
/20-089	-10.1153
arbeit	-10.1153
feuillet	-10.1153
mostra	-10.1153
wift	-10.1153
/2020/08/	-10.1153
challenge	-10.1153
/2020/02/	-10.1153
Information	-10.1153
ecoinform	-10.1153
joint	-10.1153
oldendale	-10.1153
pckids	-10.1153
tZWRpY	-10.1153
wiki	-10.1153
economy	-10.1153
konzept	-10.1153
%2009%202014	-10.1153
/0000007	-10.1153
Attend	-10.1153
High	-10.1153
dpbh	-10.1153
elices	-10.1153
esquisa	-10.1153
letterPdf	-10.1153
modena	-10.1153
modern	-10.1153
homson	-10.1153
hotel	-10.1153
tecnic	-10.1153
centros	-10.1153
/2020/05/	-10.1154
transport	-10.1154
/2016/02/	-10.1154
Attachment	-10.1154
amaole	-10.1154
Juli	-10.1154
convert	-10.1154
Pupp	-10.1154
prepar	-10.1154
scribe	-10.1154
REQU	-10.1154
dziel	-10.1154
holland	-10.1154
OiJ	-10.1154
ZGY	-10.1154
vIjtzOjM	-10.1154
/2021-05/	-10.1154
advise	-10.1154
econdar	-10.1154
karriere	-10.1154
produto	-10.1154
totem	-10.1154
ERTI	-10.1154
Director	-10.1154
bourne	-10.1154
gswpa	-10.1154
/2016/01/	-10.1155
/2017/12/	-10.1155
ASSO	-10.1155
schaft	-10.1155
short	-10.1155
11218	-10.1155
roclaw	-10.1155
energy	-10.1155
&_=17	-10.1155
Method	-10.1155
market	-10.1155
Green	-10.1155
UBAM	-10.1156
working	-10.1156
piano	-10.1156
/2019/09/	-10.1156
filter	-10.1156
stamps	-10.1156
211215	-10.1156
2021-22-	-10.1156
Hygiene	-10.1156
IB	-10.1157
YXR	-10.1157
week	-10.1157
Senior	-10.1157
_2017_	-10.1157
korea	-10.1157
Life	-10.1157
tiedo	-10.1157
=10.1.1.1.	-10.1157
Shoot	-10.1157
Start	-10.1157
Study	-10.1157
obcin	-10.1157
Scott	-10.1158
110020	-10.1158
odbor	-10.1158
erufs	-10.1158
flyer	-10.1158
kjhyoKj	-10.1158
/2018/09/	-10.1158
oeniz	-10.1158
Court	-10.1158
journey	-10.1158
paroiss	-10.1158
Prospekt	-10.1159
452?	-10.1159
biome	-10.1159
Light	-10.1159
national	-10.1159
sblad	-10.1159
Instru	-10.1159
WGewmoAfeN	-10.116
marsan	-10.116
unipu	-10.116
3%82%	-10.116
01913	-10.116
quality	-10.116
vendor	-10.116
parents	-10.116
alpin	-10.1161
dited	-10.1161
licht	-10.1161
worth	-10.1161
/2019/01/	-10.1161
securitas	-10.1161
Jaar	-10.1162
Flow	-10.1162
Invit	-10.1162
Manual	-10.1162
ealins	-10.1162
vol	-10.1162
Presentation	-10.1162
enefit	-10.1162
excel	-10.1162
5%90%	-10.1162
Child	-10.1162
packet	-10.1162
NEWS	-10.1163
guest	-10.1163
introduction	-10.1163
0502_	-10.1163
turning	-10.1163
2%80%9	-10.1163
/1543	-10.1163
-2019_	-10.1163
Rule	-10.1163
Notes	-10.1163
midland	-10.1163
setsu	-10.1164
silk	-10.1164
maxim	-10.1164
enkmalliste	-10.1164
/2018/01/	-10.1165
Covid	-10.1165
Model	-10.1165
illar	-10.1165
/201703	-10.1166
Chron	-10.1166
ianor	-10.1166
ctivities	-10.1166
have	-10.1166
scbw	-10.1166
production	-10.1167
sam	-10.1167
cache	-10.1167
uzla	-10.1167
Out	-10.1167
BlM	-10.1168
kauf	-10.1168
Announcement	-10.1168
Evalua	-10.1169
franc	-10.1169
elpha	-10.117
IMPULSE	-10.117
elektro	-10.1171
track	-10.1171
0215/	-10.1171
643&	-10.1171
zioni	-10.1171
/587/	-10.1171
endelh	-10.1172
aiset	-10.1172
REPO	-10.1172
otti	-10.1172
lapu	-10.1173
ideat	-10.1174
mega	-10.1174
schap	-10.1174
cerik	-10.1174
include	-10.1174
maison	-10.1174
letter	-10.1175
Kids	-10.1175
coast	-10.1175
mitte	-10.1176
GSC	-10.1176
formul	-10.1176
/2020/10/1	-10.1176
budget	-10.1177
ington	-10.1177
Rate	-10.1177
3872	-10.1179
MTU	-10.1179
6%99%	-10.1179
AGM	-10.118
Temp	-10.118
crew	-10.118
treat	-10.118
bird	-10.118
endri	-10.1181
Vol	-10.1181
kirchenm	-10.1181
avje	-10.1182
zJl	-10.1182
politi	-10.1182
/1/2/	-10.1182
xpY	-10.1182
usik	-10.1183
June	-10.1183
ero	-10.1183
mesto	-10.1183
IHF	-10.1184
right	-10.1184
68557	-10.1184
pnas	-10.1184
tribute	-10.1184
miya	-10.1185
/1/3/	-10.1185
4703	-10.1185
raft	-10.1185
country	-10.1186
display	-10.1186
ok	-10.1187
aran	-10.1187
glio	-10.1187
eguro	-10.1188
ipco	-10.1189
March	-10.1189
ivil	-10.119
eelsprong	-10.119
fwN	-10.119
MAK	-10.1191
education	-10.1191
judo	-10.1192
ough	-10.1192
bal	-10.1192
TC	-10.1193
nature	-10.1193
full	-10.1193
18174	-10.1194
trust	-10.1194
consum	-10.1195
ncestry	-10.1196
regel	-10.1196
rgste	-10.1196
West	-10.1197
mobilite	-10.1198
Tax	-10.1198
hill	-10.1199
%202020%20	-10.1199
wash	-10.12
3%82%8	-10.1202
ecember	-10.1203
legislatur	-10.1204
ailway	-10.1204
mitsu	-10.1205
tandard	-10.1205
talian	-10.1206
zione	-10.1207
trade	-10.1208
venture	-10.1208
novo	-10.1209
aabr	-10.1209
0/0/1	-10.1209
belt	-10.1209
amento	-10.1209
architect	-10.1209
beck	-10.121
developer	-10.121
eg	-10.1211
historic	-10.1212
rtists	-10.1212
3367	-10.1212
FOR	-10.1213
9874	-10.1213
Mill	-10.1214
Test	-10.1214
/2019/05	-10.1214
india	-10.1216
touris	-10.1217
writ	-10.1217
stock	-10.1217
uL	-10.1219
LUS	-10.1219
exam	-10.122
Data	-10.122
quip	-10.1221
Image	-10.1222
/248	-10.1224
hello	-10.1224
sailin	-10.1226
1141	-10.1226
lum	-10.1226
/5/13	-10.1226
Bulletin	-10.123
MyM	-10.1231
ITI	-10.1231
Pub	-10.1232
your	-10.1232
eights	-10.1232
charter	-10.1232
voorw	-10.1234
shade	-10.1235
update	-10.1236
gency	-10.1237
0209	-10.1239
User	-10.124
9%96%	-10.124
juan	-10.1241
region	-10.1244
=402	-10.1244
frei	-10.1244
ingles	-10.1245
84169	-10.1246
kids	-10.1248
stats	-10.1248
farm	-10.1249
/2020/07/	-10.125
handel	-10.125
_3.0	-10.125
fri	-10.125
wig	-10.1252
stein	-10.1252
from	-10.1253
inach	-10.1253
june	-10.1255
haz	-10.1255
slista	-10.1255
Events	-10.1257
otogra	-10.1258
altung	-10.1258
6042	-10.1259
strategi	-10.1261
XJ	-10.1261
screen	-10.1261
controls	-10.1262
promo	-10.1262
9926	-10.1264
435	-10.1265
soccer	-10.1266
libro	-10.1266
schedule	-10.1266
_2014	-10.1266
serie	-10.1267
/72	-10.1267
2014-11	-10.1272
3-2016	-10.1272
grade	-10.1273
032	-10.1275
tools	-10.128
ale	-10.128
ske	-10.1281
OTS	-10.1282
xND	-10.1282
nika	-10.1283
sbedingungen	-10.1284
420	-10.1284
=1627	-10.1284
062	-10.1288
hird	-10.1289
film	-10.129
silver	-10.1291
LINE	-10.1291
5557	-10.1292
morr	-10.1292
woh	-10.1293
tdr	-10.1293
-2021-2022.	-10.1294
studies	-10.1294
auls	-10.1295
padel	-10.1296
reform	-10.1297
aender	-10.1299
FIC	-10.1302
26_	-10.1302
chemi	-10.1302
nieder	-10.1303
zi	-10.1303
00000	-10.1304
KJ	-10.1305
kZ	-10.1305
arry	-10.1305
note	-10.1306
confer	-10.1306
map	-10.1307
TAL	-10.1308
Vir	-10.1309
69-3	-10.1311
nord	-10.1312
2021/	-10.1312
1-04-1	-10.1312
-15-	-10.1315
=316	-10.1317
analyse	-10.1318
uploaded	-10.1318
-24-	-10.132
date	-10.132
volu	-10.132
ische	-10.1321
kreis	-10.1322
brand	-10.1323
agg	-10.1325
NAS	-10.1327
787	-10.1329
IGI	-10.1329
prav	-10.133
ourth	-10.133
3508	-10.1331
=186	-10.1332
bmw	-10.1333
pick	-10.1334
ccounting	-10.1334
prac	-10.1335
ussel	-10.1335
1402	-10.1338
ubp	-10.134
cao	-10.1342
0399	-10.1343
Patr	-10.1343
oid	-10.1344
/456	-10.1345
robin	-10.1346
orpora	-10.1346
ZW	-10.1352
iscal	-10.1357
pga	-10.1358
JK	-10.1358
scholars	-10.1359
RO	-10.136
EAS	-10.1362
57.	-10.1363
Programs	-10.1364
Upload	-10.1367
bole	-10.1368
rael	-10.1371
koz	-10.1378
that	-10.1378
Call	-10.138
face	-10.138
21_	-10.1381
ilano	-10.1382
646	-10.1383
0%95%	-10.1384
magaz	-10.1386
meter	-10.1389
085	-10.1391
VO	-10.1397
tfo	-10.1401
2045	-10.1403
RX	-10.1405
Server	-10.1405
mosta	-10.1407
8_-_	-10.1408
avis	-10.1409
vom	-10.1417
306	-10.1421
rkd	-10.1422
3%80%9	-10.1426
into	-10.1429
/2021/06/2021-	-10.1429
7%94%	-10.143
epaper	-10.143
ksia	-10.1431
/4/4	-10.1432
apide	-10.1432
Pres	-10.1434
-2017	-10.1438
eather	-10.1439
jsp	-10.1439
OZ	-10.1446
SPA	-10.1447
879	-10.1448
WU	-10.1449
ortheast	-10.145
ward	-10.1456
uation	-10.1456
-2014.	-10.1456
erald	-10.1457
rx	-10.146
linical	-10.1461
juli	-10.1461
lub	-10.1461
report	-10.1464
RDI	-10.1467
UI	-10.1468
harter	-10.1469
/1030	-10.1469
jU	-10.147
hig	-10.1472
acja	-10.1473
ITA	-10.1473
GW	-10.1474
pende	-10.1474
unc	-10.1474
pain	-10.1476
heide	-10.1479
1988/	-10.148
3%81%	-10.148
3%81%9	-10.1489
leader	-10.1491
andbook	-10.1492
ence	-10.1492
bur	-10.1501
electr	-10.1502
To	-10.1503
PQ	-10.151
tier	-10.1513
rd	-10.1513
Ausstell	-10.1518
Co	-10.1518
glas	-10.152
race	-10.1523
yr	-10.1527
FR	-10.1531
enda	-10.1533
uts	-10.1533
/2106	-10.1533
966	-10.1534
schri	-10.1535
oronavirus	-10.1536
10/	-10.1538
point	-10.154
Iw	-10.154
election	-10.1544
_190	-10.1546
spot	-10.1547
9806	-10.1551
Safe	-10.1553
1953	-10.1554
Ta	-10.1555
xo	-10.1556
pac	-10.1556
cada	-10.1561
jx	-10.1566
zcz	-10.1567
TS	-10.1568
5159	-10.1576
arnab	-10.159
labi	-10.1591
ebooks	-10.1591
=102	-10.1592
blic	-10.1592
styr	-10.1592
fmg	-10.1595
858/	-10.1595
Ov	-10.1597
ww	-10.1599
dung	-10.1599
poli	-10.1605
20210719	-10.1608
1998	-10.161
Regula	-10.1615
ZU	-10.1616
island	-10.1617
mxp	-10.1622
99.1	-10.1622
carte	-10.1629
AT	-10.1636
ennos	-10.1637
urso	-10.1637
Sch	-10.165
hok	-10.165
unes	-10.165
very	-10.165
0259	-10.166
archives	-10.1664
cken	-10.1664
sun	-10.1665
vne	-10.167
rance	-10.1674
WR	-10.1677
9616	-10.1677
TEN	-10.169
light	-10.1693
bod	-10.1695
10%20	-10.1705
landor	-10.1709
times	-10.1711
cce	-10.1711
North	-10.1711
olar	-10.1712
springs	-10.1714
786-	-10.1716
kps	-10.1719
erberg	-10.1721
sports	-10.1723
0000010	-10.1725
Yq	-10.1726
2831	-10.1729
ologi	-10.173
2016	-10.1731
2021.05.	-10.1741
Base	-10.1743
whit	-10.1746
mpi	-10.1751
grupp	-10.1753
/1233	-10.1754
omain	-10.1755
sur	-10.1756
zO	-10.1759
074	-10.1763
Not	-10.1768
/2016	-10.177
Mx	-10.1771
davi	-10.1773
7/3	-10.1775
stall	-10.1783
isin	-10.179
LIS	-10.1791
=710	-10.1791
ons	-10.1794
komi	-10.1795
edaf	-10.1797
quan	-10.1804
58&	-10.1804
258	-10.1805
vent	-10.1807
-2019-	-10.1808
oll	-10.1812
prel	-10.1816
15.	-10.1823
17114	-10.1823
Hy	-10.1825
3877	-10.1825
ificacio	-10.1826
changes	-10.1827
gene	-10.1831
vestn	-10.1834
609-	-10.1836
JE	-10.184
kaky	-10.1844
colo	-10.1847
editions	-10.1848
rovin	-10.185
tus	-10.1852
anty	-10.1853
ork	-10.1854
CCA	-10.1858
activ	-10.186
924	-10.1864
schools	-10.1869
aking	-10.187
additional	-10.187
shing	-10.1873
cho	-10.1878
/055	-10.188
Cod	-10.1885
Up	-10.19
KZ	-10.1905
uZG	-10.1905
echo	-10.1905
YS	-10.1909
AM	-10.1912
Nj	-10.1912
704	-10.1919
059-	-10.1922
649	-10.193
290	-10.1931
ally	-10.1931
gar	-10.1937
Inst	-10.1942
/589	-10.1943
=20	-10.1946
etail	-10.1951
lists	-10.1954
tyle	-10.1959
NO	-10.196
opc	-10.1967
ajo	-10.1968
transp	-10.1975
ering	-10.1975
avi	-10.1978
VW	-10.1982
kx	-10.1984
%94%	-10.1985
XB	-10.1986
0572	-10.1987
fox	-10.1991
OCV	-10.1996
sig	-10.1997
Di	-10.1999
355/	-10.1999
030	-10.2001
chin	-10.2002
kL	-10.2002
uji	-10.2005
elle	-10.2005
ael	-10.2005
AV	-10.2006
wes	-10.2007
IH	-10.201
627	-10.2013
SN	-10.2015
asc	-10.2018
JB	-10.2023
jv	-10.2024
Vy	-10.2031
conf	-10.2031
allian	-10.2032
REV	-10.2034
0076	-10.2041
204/	-10.2049
346	-10.2051
ester	-10.2053
-84	-10.2062
0.1.2	-10.2072
Vnd	-10.2075
aire	-10.2084
bfb	-10.21
/204	-10.2103
round	-10.211
BOA	-10.2118
ely	-10.2119
gra	-10.2121
zen	-10.2122
Anm	-10.2125
prm	-10.2127
ein	-10.2137
dsp	-10.2147
wit	-10.2162
niya	-10.2167
pomo	-10.2169
053/	-10.2175
/2021/05/2	-10.2175
_2018_	-10.2182
43002	-10.2187
226	-10.2188
Ord	-10.219
3-21	-10.2195
521/	-10.2197
rls	-10.2203
DEF	-10.2205
CZ	-10.2213
Cre	-10.2222
_10_	-10.2223
6/60	-10.2245
hoo	-10.225
Nove	-10.2251
dGVu	-10.2256
0054	-10.2262
kka	-10.2265
teen	-10.2269
master	-10.227
redc	-10.2277
YWN	-10.2283
/79	-10.2284
ass	-10.2288
mbl	-10.2291
mM	-10.2293
041	-10.2294
GB	-10.2301
AO	-10.2302
NH	-10.2312
ccee	-10.2314
Pubblicazion	-10.2317
Page	-10.2319
Th	-10.233
=31	-10.2342
/244	-10.2353
CB	-10.2363
vMI	-10.2368
BN	-10.2371
neration	-10.2377
Wx	-10.2391
278/	-10.24
26%20	-10.2402
TL	-10.2404
789	-10.241
484	-10.2411
MIL	-10.2413
yt	-10.2414
ctory	-10.2416
lea	-10.2417
/-/	-10.2421
obec	-10.2431
YW	-10.2432
_13	-10.2438
pace	-10.2447
CM	-10.2448
AQ	-10.2455
vYm	-10.2456
mazu	-10.246
BZ	-10.2461
FT	-10.2466
734	-10.247
/216	-10.2472
fest	-10.2474
whe	-10.2474
alaba	-10.2474
Mat	-10.2476
liste	-10.2482
cX	-10.2508
maps	-10.2511
Stu	-10.2514
mh	-10.2519
evad	-10.2519
=41	-10.2519
Post	-10.252
end	-10.2521
%201	-10.2529
ose	-10.2531
-10-	-10.2531
ivara	-10.2533
ccf	-10.2534
195	-10.2541
/40	-10.2547
KW	-10.2552
=510	-10.2553
cv	-10.256
mars	-10.2563
hO	-10.2564
094	-10.2577
Rv	-10.2581
3104	-10.259
tant	-10.2594
pet	-10.2598
Pa	-10.2603
NW	-10.2607
eea	-10.2616
0000	-10.2616
APT	-10.2618
/59	-10.2625
61.	-10.2637
kov	-10.2637
dpo	-10.2641
icc	-10.2649
medi	-10.2652
aster	-10.2655
1700	-10.2656
zy	-10.2661
=30	-10.2662
dix	-10.2663
1982	-10.2668
zeit	-10.2671
JF	-10.2673
4581	-10.2679
DU	-10.2679
PE	-10.2683
bill	-10.2683
-17-	-10.2683
confi	-10.2684
Nor	-10.2687
480	-10.2688
00010	-10.2688
fZ	-10.2688
tacion	-10.2697
ancia	-10.2697
wal	-10.2708
867.	-10.2713
onko	-10.2715
Un	-10.2724
18_0	-10.2728
iti	-10.2733
fad	-10.2735
861	-10.2741
wag	-10.2747
738	-10.2755
/27	-10.2759
Dx	-10.2774
=12	-10.2774
8033	-10.2778
ary	-10.2778
4-1	-10.2779
/418	-10.2781
-16-0	-10.2785
erage	-10.2788
qf	-10.279
ford	-10.2794
20210607	-10.2801
tY	-10.2815
fQ	-10.2818
eep	-10.2826
3182	-10.2834
/%	-10.2834
suo	-10.2837
-43	-10.284
WA	-10.284
EL	-10.2842
lis	-10.2844
gP	-10.2848
/2020_	-10.2852
rbk	-10.2854
bras	-10.2855
spi	-10.2876
Nl	-10.288
modules	-10.2882
793	-10.2885
/76	-10.2888
624	-10.2891
CW	-10.2892
1110	-10.2898
zN	-10.2903
/2021071	-10.2908
aae	-10.2909
-14	-10.2913
41_	-10.2933
oka	-10.2936
artic	-10.294
kaya	-10.2946
rology	-10.2947
ntry	-10.2953
heu	-10.2954
/101	-10.2956
847	-10.2962
CMA	-10.2963
Si	-10.2969
sve	-10.2982
nasz	-10.2997
kj	-10.3
vI	-10.3001
hoy	-10.3002
dat	-10.3012
3011	-10.3032
bp	-10.3034
=103	-10.3034
0739	-10.3035
ank	-10.3038
add	-10.3043
revis	-10.3044
signa	-10.3048
kie	-10.3051
pray	-10.3053
uid	-10.3054
ura	-10.3064
zh	-10.3071
0615	-10.3072
ip	-10.3081
uality	-10.3087
001	-10.3094
/2009/	-10.31
bau	-10.3113
Hol	-10.3117
eapp	-10.3117
under	-10.3122
ob	-10.3131
Ca	-10.3136
ONS	-10.3137
-19	-10.3143
lite	-10.3145
heim	-10.3149
/2015/	-10.3152
/237	-10.3153
384	-10.3161
/284	-10.317
cdc	-10.3182
vid	-10.3206
1235	-10.3207
bla	-10.3207
-26-	-10.3209
petro	-10.323
Ja	-10.3238
bs	-10.3243
Pdf	-10.3243
az	-10.3244
umc	-10.3252
bded	-10.3253
6-00	-10.3261
9770	-10.3263
jb	-10.3272
ick	-10.3272
ndation	-10.3276
/44	-10.328
KU	-10.3283
dGl	-10.329
049	-10.3291
nort	-10.3292
via	-10.3303
85&	-10.3307
oong	-10.3308
uebl	-10.3314
458	-10.3315
OH	-10.3319
oting	-10.3323
ens	-10.3335
42&	-10.3336
610_	-10.3336
OP	-10.3349
aust	-10.3349
NS	-10.3354
inde	-10.3355
ente	-10.3355
3078	-10.3359
ashi	-10.3365
manuals	-10.3372
over	-10.3373
likac	-10.3388
bier	-10.3405
07/	-10.3406
53&	-10.3414
gn	-10.3418
yB	-10.3429
adger	-10.3442
8.	-10.3447
Dr	-10.3449
mel	-10.3449
alt	-10.3457
47	-10.3458
auto	-10.3463
obit	-10.3472
MC	-10.3476
Impa	-10.3481
moc	-10.3497
gin	-10.3501
gan	-10.3507
ela	-10.3514
lz	-10.3518
34&	-10.352
0205	-10.3546
Adv	-10.3548
ption	-10.3549
mann	-10.3555
489	-10.3561
recen	-10.3564
che	-10.3564
dist	-10.3573
ement	-10.3575
train	-10.3582
-2018	-10.3588
ambi	-10.3599
Pd	-10.3606
SLx	-10.3609
chen	-10.3612
ult	-10.3622
att	-10.3628
1712	-10.3629
EJ	-10.3636
37&	-10.3639
ay	-10.3653
NN	-10.3655
chil	-10.3657
int	-10.3659
Kx	-10.3661
Dia	-10.3669
obs	-10.3671
rop	-10.3673
ities	-10.3675
asan	-10.3676
tions	-10.3678
rag	-10.368
404	-10.3682
ediathek	-10.3691
ttle	-10.3701
pias	-10.3713
BO	-10.3721
iste	-10.3729
avan	-10.3732
CED	-10.3732
aver	-10.3739
KL	-10.3748
009	-10.3755
276	-10.3773
Hd	-10.3776
handle	-10.3789
182/	-10.3791
uarter	-10.3796
mZ	-10.3799
tv	-10.3818
3-1	-10.3836
3156	-10.3837
BV	-10.384
zei	-10.3851
VN	-10.386
EET	-10.3876
Bas	-10.3877
pen	-10.389
vQ	-10.3893
CK	-10.3896
ser	-10.3902
Rep	-10.3905
1363	-10.3905
HG	-10.3908
ym	-10.3927
aly	-10.3931
unter	-10.3939
462	-10.3941
Ke	-10.3943
%98%	-10.3954
daa	-10.3957
16_	-10.401
984	-10.4011
Chi	-10.4015
1972	-10.4017
801/	-10.4021
-12	-10.4022
=83	-10.4028
arden	-10.4046
Meta	-10.4051
tream	-10.4055
2011.	-10.4065
/04/	-10.4068
_17.0	-10.407
bx	-10.4081
CU	-10.4084
OF	-10.4092
gale	-10.41
tring	-10.4106
tors	-10.411
wY	-10.4125
Appe	-10.4125
74.	-10.4127
hip	-10.4131
rown	-10.4142
.11.20	-10.415
waterm	-10.4153
iring	-10.4171
401	-10.4174
=51	-10.4187
rab	-10.4191
zQ	-10.4215
392	-10.4224
eko	-10.4225
046	-10.4227
%92%	-10.4238
ona	-10.4242
/2021040	-10.4243
lav	-10.4252
698/	-10.4253
ot	-10.4259
card	-10.4263
/363	-10.4276
/2017	-10.4281
hX	-10.4286
sav	-10.4295
Ev	-10.4298
sva	-10.4303
ij	-10.4325
earing	-10.433
Fi	-10.4333
oshi	-10.4336
macha	-10.4338
eten	-10.4341
2021_0	-10.4353
igned	-10.4354
-18	-10.4354
ahn	-10.4356
_2020_20	-10.436
morni	-10.4364
nx	-10.4365
Fp	-10.4379
277	-10.4384
ang	-10.4385
810	-10.4389
rms	-10.439
sinfant	-10.4393
/107	-10.4394
2988	-10.4399
Br	-10.4413
tenan	-10.4424
55-	-10.4434
imin	-10.444
fris	-10.4444
osi	-10.4447
ibs	-10.445
hap	-10.4456
od	-10.4458
ministr	-10.4463
990	-10.4463
aben	-10.4482
876	-10.4494
318	-10.4495
86	-10.4498
bri	-10.4501
erry	-10.4502
duns	-10.4508
seu	-10.451
kay	-10.4518
/12	-10.4522
erior	-10.4524
ISION	-10.453
smart	-10.4536
CT	-10.4536
Seme	-10.4537
egree	-10.4541
Vu	-10.4548
kaw	-10.455
flo	-10.4555
69&	-10.456
ehle	-10.4563
mple	-10.4564
18/	-10.4573
oodo	-10.4579
onville	-10.4582
cial	-10.4587
105	-10.4593
512	-10.4614
/31/	-10.4622
plast	-10.4623
792	-10.4625
sit	-10.4643
336	-10.4645
orce	-10.465
itei	-10.4658
Vie	-10.466
508	-10.4662
SD	-10.4668
632	-10.468
eren	-10.4681
/145	-10.4682
jf	-10.4706
5-200	-10.4708
=1622	-10.4716
6_01_	-10.4716
Bi	-10.4721
hamp	-10.4727
qj	-10.473
pg	-10.4733
arat	-10.474
362	-10.4741
XY	-10.4741
cDo	-10.4747
legisla	-10.4753
0806	-10.4769
ENT	-10.477
-11-	-10.4772
samp	-10.4781
19_	-10.4791
6-	-10.4795
union	-10.4809
PRE	-10.4821
Ti	-10.483
sician	-10.4832
cador	-10.4832
%29	-10.4835
amina	-10.4837
regi	-10.4838
oral	-10.4841
ible	-10.4844
267	-10.4844
enn	-10.4844
993	-10.4849
1793	-10.4878
667	-10.488
ersion	-10.4901
van	-10.4903
cca	-10.4914
01_	-10.4914
137	-10.4916
Lg	-10.4925
enix	-10.4931
EA	-10.4935
/2015/0	-10.4937
rman	-10.4952
/8	-10.4953
302	-10.4964
YE	-10.4967
Soli	-10.497
077	-10.4979
TR	-10.4983
uC	-10.4986
pe	-10.4987
ueck	-10.4988
fre	-10.4989
cord	-10.4992
4_20	-10.4997
BIR	-10.4997
anner	-10.5006
ialo	-10.5008
zd	-10.501
_20	-10.5012
754	-10.5018
iner	-10.5041
912	-10.5052
ison	-10.5074
xX	-10.5076
pid	-10.5099
lig	-10.5109
-8	-10.511
En	-10.5111
imple	-10.5119
523	-10.5122
Den	-10.5132
riz	-10.5132
nance	-10.5144
283	-10.5145
40.	-10.5145
2-5	-10.5149
cid	-10.5157
2021-03-	-10.5166
nro	-10.518
run	-10.5181
dar	-10.5183
mbar	-10.5186
Bru	-10.5187
/362	-10.519
5-15	-10.5208
/34	-10.5212
esca	-10.5215
89-	-10.5216
fed	-10.5221
bdd	-10.5224
FS	-10.523
44.	-10.524
708	-10.524
/2021_	-10.5248
ktion	-10.526
Kc	-10.526
OL	-10.5272
737	-10.5277
nks	-10.5278
akt	-10.5291
651	-10.5298
INE	-10.53
ber	-10.5302
gno	-10.5305
%28	-10.5306
186/	-10.5317
3/3	-10.5318
=23	-10.5324
jc	-10.5332
hand	-10.5349
245	-10.535
/2021-03	-10.5369
wer	-10.5371
0707	-10.54
Commo	-10.5403
fec	-10.5407
gl	-10.5407
omoni	-10.5408
Jan	-10.5425
AND	-10.5447
YH	-10.5451
tana	-10.5456
oli	-10.5458
=296	-10.5474
Mw	-10.5474
jg	-10.5476
adora	-10.5477
dy	-10.5483
948	-10.5492
07.	-10.5498
yf	-10.5499
001_20	-10.5515
131	-10.5517
ben	-10.5519
BAD	-10.5519
21/	-10.5523
etter	-10.5526
nau	-10.5527
-03	-10.5532
Spon	-10.5535
tx	-10.5536
---	-10.5541
891	-10.5546
4_	-10.5551
NER	-10.5552
CF	-10.5561
gab	-10.5562
tn	-10.5566
tl	-10.557
2013	-10.5575
1-97	-10.558
898	-10.5582
qG	-10.5594
dal	-10.5602
8?	-10.5619
522	-10.5621
ces	-10.5624
stell	-10.5627
kn	-10.5633
Sa	-10.5647
Le	-10.5647
%202011	-10.5657
OCT	-10.5675
sola	-10.5676
lastic	-10.5677
678	-10.5684
-6	-10.5693
Yv	-10.5696
parks	-10.5701
sho	-10.5718
/147	-10.5719
erras	-10.5724
5.	-10.5762
2435	-10.5765
llowor	-10.5768
0%3	-10.5768
2019	-10.5769
676	-10.5774
2005_	-10.5788
EDA	-10.5808
Des	-10.5813
emade	-10.5815
ippsta	-10.5834
jat	-10.5834
/50	-10.5835
td	-10.5844
/340	-10.5851
als	-10.5854
poste	-10.5872
nfants	-10.5872
2022.	-10.5873
Ig	-10.5873
hi	-10.5874
/202104	-10.5876
042	-10.5882
9718	-10.591
3-49	-10.5912
SE	-10.5921
vb	-10.5929
IRM	-10.5936
Mz	-10.594
ER	-10.594
tivo	-10.5941
lagen	-10.5941
disc	-10.5963
reven	-10.5964
959	-10.5964
igin	-10.5964
andre	-10.5976
Zj	-10.5983
abh	-10.5997
uku	-10.5997
Ext	-10.6
inthe	-10.6003
28.	-10.6005
ncommon	-10.6013
tid	-10.6016
lag	-10.6017
lanos	-10.6017
Hu	-10.6019
LAN	-10.6026
ib	-10.6031
grad	-10.6047
bec	-10.6061
ZQ	-10.6062
sJ	-10.6063
CAL	-10.6068
370	-10.6075
erbal	-10.6076
Ul	-10.608
moni	-10.6086
/863	-10.6087
lank	-10.6093
tive	-10.6104
uti	-10.6105
hv	-10.6118
-2021-07-	-10.612
ala	-10.6121
App	-10.6137
/240	-10.6137
2018	-10.614
Ex	-10.6145
cpc	-10.6152
vest	-10.617
rie	-10.619
00308	-10.6192
state	-10.6203
Qt	-10.6204
gm	-10.6207
bits	-10.6211
145.	-10.6226
nor	-10.6229
80.	-10.623
=44	-10.6257
non	-10.6267
RV	-10.6273
Dun	-10.6281
qI	-10.6295
eira	-10.6299
Us	-10.63
Sep	-10.6304
tel	-10.6305
aG	-10.6312
Sea	-10.6315
wh	-10.6318
Wp	-10.6332
-02	-10.634
caa	-10.6342
SA	-10.6347
2011	-10.6353
963	-10.6374
56?	-10.6378
onta	-10.638
_2011	-10.6384
Bid	-10.6395
olog	-10.6398
257	-10.6401
ral	-10.6407
ckup	-10.6416
12/	-10.642
/31	-10.6428
ire	-10.6437
377	-10.6439
VS	-10.6449
bject	-10.6451
Lz	-10.6455
lor	-10.6458
otizi	-10.6463
VB	-10.647
tec	-10.6491
2.0	-10.6499
tics	-10.6503
=2021	-10.6509
rego	-10.6529
2966	-10.6565
sh	-10.6565
mur	-10.6578
Conse	-10.6586
BY	-10.6587
ev	-10.6599
ober	-10.6616
2%20	-10.6616
/1/	-10.6623
2021052	-10.6624
xD	-10.6626
dro	-10.6632
hy	-10.6637
ark	-10.6638
Col	-10.6645
Am	-10.6649
Ann	-10.6656
%83%	-10.6665
kre	-10.6675
kot	-10.6681
pre	-10.6685
7/5	-10.6686
/200	-10.6695
nky	-10.6696
-02-20	-10.6698
725	-10.6719
inst	-10.6719
2_1	-10.6723
033	-10.6741
cfa	-10.6741
ATA	-10.6742
estion	-10.6754
0304	-10.6762
Mor	-10.6769
482	-10.677
ott	-10.6774
cni	-10.6775
aro	-10.6778
kli	-10.6779
ross	-10.6786
sq	-10.6794
/7-	-10.6797
men	-10.6797
LD	-10.6807
NP	-10.6824
mio	-10.6832
pozi	-10.6843
__	-10.6848
inse	-10.6849
ena	-10.6858
/18	-10.6865
712	-10.6866
tton	-10.6869
enz	-10.6874
md	-10.6884
epi	-10.6908
erf	-10.6931
hor	-10.6931
posit	-10.6939
545	-10.6953
+2	-10.6966
-01-	-10.6968
Ba	-10.6982
1285	-10.7001
1-4	-10.7009
xz	-10.7015
flor	-10.7015
630	-10.7021
anna	-10.7022
epr	-10.7034
ayer	-10.7034
_2020	-10.7056
MV	-10.7057
ition	-10.7072
SF	-10.7074
Lin	-10.7076
294	-10.7078
une	-10.7086
blo	-10.7103
hY	-10.7126
atist	-10.7127
aka	-10.7135
hard	-10.7139
71.	-10.7149
siv	-10.716
ide	-10.716
-11	-10.7164
bcc	-10.717
ls	-10.7173
poz	-10.7182
mediathe	-10.7184
334	-10.719
561	-10.7193
Pla	-10.7203
publi	-10.7207
ian	-10.721
824	-10.721
600	-10.7215
netree	-10.7217
mara	-10.7219
0359	-10.7225
IC	-10.7229
799	-10.723
sou	-10.7234
556	-10.7238
atos	-10.7247
Ce	-10.7248
rail	-10.7256
kaj	-10.7264
LR	-10.7267
anager	-10.7271
jas	-10.7273
stad	-10.7275
%85%	-10.7279
ms	-10.7286
1719	-10.7289
-2015	-10.729
/2014	-10.7294
rea	-10.7297
rit	-10.7297
ffen	-10.7306
enta	-10.7312
vs	-10.7317
oak	-10.7317
JN	-10.7318
HA	-10.732
Sit	-10.733
roc	-10.7347
/51	-10.7379
tern	-10.738
aj	-10.7389
nseu	-10.7403
590	-10.7417
XI	-10.7429
ket	-10.7435
fg	-10.7435
creat	-10.7436
16.	-10.7436
413	-10.7452
48&	-10.7471
inv	-10.7494
172	-10.7499
tok	-10.75
aku	-10.7502
-01-20	-10.7505
handl	-10.7509
An	-10.752
2008	-10.7524
prev	-10.7527
3%2	-10.7528
ld	-10.753
757	-10.7539
xR	-10.7543
20-	-10.7546
000	-10.7552
0-4	-10.7584
geb	-10.7589
_8	-10.759
ili	-10.7596
UL	-10.7606
anz	-10.761
ergis	-10.762
Cy	-10.7643
rod	-10.7645
Man	-10.7648
eco	-10.7651
_3.	-10.7654
803	-10.7663
jun	-10.7671
___	-10.7677
765	-10.7679
funda	-10.7685
364	-10.7686
sto	-10.7696
Ita	-10.7705
xH	-10.771
penba	-10.772
/2009	-10.7723
erna	-10.774
Lx	-10.7755
aktu	-10.7758
zj	-10.7761
dron	-10.7765
itori	-10.7773
RB	-10.7775
Pai	-10.7775
.11.	-10.7784
etto	-10.7784
reta	-10.779
%88%	-10.7801
mas	-10.7801
unit	-10.781
rec	-10.7811
AS	-10.7813
pla	-10.782
Tu	-10.7831
ugi	-10.7833
SIONI	-10.785
tory	-10.7851
_2.	-10.7908
ted	-10.7911
12.	-10.7928
ast	-10.7938
etic	-10.7947
/2016/0	-10.7953
hun	-10.7972
versta	-10.7982
xi	-10.7985
wv	-10.7996
/20210607	-10.8001
alin	-10.8005
917	-10.801
mart	-10.8011
6836	-10.8011
437	-10.8024
477	-10.8043
-2014-	-10.8066
roto	-10.8073
Fl	-10.8095
RP	-10.8103
KA	-10.8106
68	-10.8107
/58	-10.8107
Ai	-10.811
_17	-10.8118
07-	-10.812
cod	-10.8125
casa	-10.8131
mon	-10.8149
bar	-10.8162
5464	-10.8166
ssor	-10.8174
vista	-10.8177
asza	-10.8179
uok	-10.8182
nte	-10.8191
hn	-10.8209
/24	-10.8214
_2020-	-10.823
%99%	-10.8259
5813	-10.8271
ersi	-10.8271
159	-10.8276
esults	-10.8276
sy	-10.8279
Dob	-10.8285
ate	-10.8306
Ku	-10.8311
collecti	-10.8317
urm	-10.8322
2017	-10.8325
04&	-10.8337
unch	-10.8357
7888	-10.8369
ome	-10.8382
/0	-10.8383
nem	-10.8385
Ho	-10.84
hus	-10.841
464	-10.8416
expa	-10.8417
PS	-10.8422
sos	-10.8429
adv	-10.8434
bsa	-10.8448
GJ	-10.8448
215	-10.8459
vert	-10.8488
/07	-10.8493
_17.	-10.8506
111	-10.851
boa	-10.8516
kak	-10.8523
9%87	-10.8524
360	-10.8526
On	-10.8537
30.	-10.8541
23/	-10.8543
Xr	-10.8548
noe	-10.8553
=19	-10.8554
oi	-10.8557
maga	-10.8561
/21/	-10.8574
mq	-10.8577
graph	-10.8584
cia	-10.8596
EO	-10.8606
-24	-10.8615
Ge	-10.8626
coun	-10.8627
enti	-10.8629
/65	-10.8639
Xv	-10.8646
ubblicazioni	-10.8646
vz	-10.8652
emp	-10.8672
ory	-10.8681
yer	-10.8685
billi	-10.8687
amas	-10.869
rite	-10.8694
Cen	-10.8714
ara	-10.8719
331	-10.8723
wir	-10.8725
937	-10.8742
982-	-10.8755
nsion	-10.8757
icid	-10.8758
-179	-10.8758
250	-10.8773
0303	-10.8784
zdGV	-10.8788
program	-10.8798
whi	-10.8799
772	-10.8801
iba	-10.8816
mach	-10.8837
tiz	-10.885
598	-10.886
aja	-10.8866
WNh	-10.8866
kal	-10.8899
-16-	-10.8901
ease	-10.8904
2021071	-10.891
3623	-10.8911
ound	-10.8912
0179	-10.893
ort	-10.8949
1-05-	-10.8982
964	-10.8984
AY	-10.8989
ccp	-10.8997
Na	-10.8999
726	-10.9
ny	-10.9008
/05/	-10.9027
itor	-10.9037
1298	-10.9038
0-9	-10.9041
DZ	-10.9044
21030	-10.9046
460	-10.9065
190	-10.9082
cre	-10.9097
chable	-10.9115
ality	-10.9118
uv	-10.9133
11&	-10.9135
3%20	-10.9145
sing	-10.9157
047	-10.9161
162	-10.9173
574	-10.918
teca	-10.9185
8-	-10.9203
eich	-10.9209
lind	-10.9214
etro	-10.9225
nen	-10.9237
443	-10.9241
laes	-10.9245
5%20	-10.9247
FC	-10.925
ouz	-10.9255
heat	-10.9257
omer	-10.9271
soc	-10.9274
tent	-10.9277
1400	-10.9283
mass	-10.929
744	-10.929
-4300	-10.9291
-05-	-10.9292
anos	-10.9324
ios	-10.933
202005	-10.9344
342	-10.9366
007	-10.937
2021051	-10.9379
542	-10.9387
wx	-10.9388
3&	-10.9393
xA	-10.9394
2014_	-10.9405
023	-10.9406
/123	-10.9408
=94	-10.9419
FileS	-10.9423
84%	-10.9437
ontow	-10.9444
imon	-10.9451
afe	-10.9455
DR	-10.9506
uth	-10.9511
308	-10.9514
jq	-10.9524
DAT	-10.9526
rou	-10.9531
dY	-10.9532
220	-10.9542
bre	-10.955
lou	-10.9556
dcc	-10.956
idc	-10.957
dditional	-10.9576
hp	-10.9578
academ	-10.9596
erbor	-10.9605
1307	-10.9612
olo	-10.9625
if	-10.9628
nrb	-10.9634
Pre	-10.9639
timi	-10.9642
7007	-10.9648
nnost	-10.9661
hing	-10.9663
rado	-10.967
try	-10.9674
rece	-10.9692
/02_	-10.9693
contro	-10.9717
Ban	-10.9742
tation	-10.9749
36/	-10.9753
Nu	-10.9775
LIT	-10.9804
138	-10.9808
=18	-10.9809
505	-10.9825
atural	-10.9825
esident	-10.9825
shop	-10.9831
-031	-10.9839
miolog	-10.9845
%2020	-10.9854
733	-10.9854
Tr	-10.986
ISI	-10.9918
840	-10.9926
90-	-10.9927
ommuniqu	-10.9939
Program	-10.9942
ight	-10.9967
928	-10.9986
083	-10.9989
geh	-10.9989
78/0	-10.9994
Mc	-10.9997
bou	-11.0006
0079	-11.0011
-01-2	-11.0012
allia	-11.002
21072	-11.0021
1711	-11.0028
225	-11.0054
eh	-11.0061
spring	-11.0062
3%81	-11.0067
050	-11.0072
famil	-11.0072
014	-11.0074
amic	-11.0083
/7/9	-11.0083
341	-11.0105
ree	-11.0121
lace	-11.0127
=34	-11.0135
ension	-11.0136
abin	-11.0148
709	-11.0162
37-	-11.0166
013	-11.0169
.%20	-11.0192
nsen	-11.0192
Regulam	-11.0195
lection	-11.0208
493	-11.0209
elect	-11.0212
Dg	-11.0214
VP	-11.0216
Orde	-11.0219
=48	-11.0224
fis	-11.0227
monte	-11.0231
9493	-11.0241
bfa	-11.0254
%202%20	-11.0265
adf	-11.0276
Mr	-11.0277
822	-11.0278
stellung	-11.0278
pra	-11.028
nn	-11.0281
his	-11.0298
hsa	-11.0302
012_	-11.0304
aps	-11.0304
red	-11.0318
yl	-11.0327
awa	-11.0339
rol	-11.034
Ko	-11.0341
qua	-11.0352
=20210	-11.0364
court	-11.0377
156/	-11.0382
elo	-11.0392
uc	-11.0394
terv	-11.0396
gon	-11.0396
Yy	-11.0399
clinic	-11.0402
forme	-11.0417
863-	-11.0429
657	-11.0433
Apri	-11.0434
grup	-11.044
spekt	-11.0446
ations	-11.0447
1988	-11.0459
5%9	-11.0461
ger	-11.0466
tell	-11.0479
mmu	-11.048
gramm	-11.0485
uppen	-11.0495
not	-11.0501
nie	-11.0503
028	-11.0508
Ac	-11.0515
raho	-11.0517
itos	-11.0517
rb	-11.0521
radu	-11.0525
mani	-11.053
sti	-11.0535
alis	-11.0538
Inn	-11.0541
dvic	-11.0552
servati	-11.0585
3/11	-11.0591
rack	-11.0595
eaders	-11.0598
OO	-11.06
21-22	-11.0609
ntPdf	-11.0621
agne	-11.0622
tate	-11.0623
fda	-11.0625
scholar	-11.0643
ontrol	-11.0649
Ler	-11.0654
21_07	-11.0658
NA	-11.0658
WF	-11.0677
fug	-11.0677
ounty	-11.07
tur	-11.0703
lond	-11.0703
lip	-11.0719
pod	-11.0719
=24	-11.0725
573	-11.0729
ran	-11.0731
By	-11.0736
9534	-11.0738
Corp	-11.0752
ziv	-11.0754
arti	-11.0758
sui	-11.076
081	-11.076
lugs	-11.0768
6812	-11.0772
account	-11.0777
907	-11.0778
mal	-11.078
ision	-11.0783
SL	-11.0786
sentation	-11.0787
ez	-11.0787
pcion	-11.0799
511	-11.08
794	-11.0805
iedersa	-11.0808
hrr	-11.081
tatement	-11.0817
IV	-11.082
bedingungen	-11.0822
7%8	-11.0826
Libr	-11.0831
call	-11.0832
7098	-11.0853
Resource	-11.0854
Guid	-11.0864
zm	-11.087
chedule	-11.0872
occer	-11.0878
trategi	-11.0879
cons	-11.0884
tool	-11.0888
corre	-11.0888
olutions	-11.089
vation	-11.089
-44	-11.089
chool	-11.0894
resource	-11.0894
unta	-11.0895
sitio	-11.0902
2021-2022.	-11.0904
16267	-11.0914
%202021	-11.0914
stema	-11.0918
316	-11.0918
ions	-11.0923
stjo	-11.0926
0201	-11.0928
zine	-11.0929
ej	-11.093
_11	-11.0933
ria	-11.0937
/22	-11.0943
plik	-11.0944
spip	-11.0946
9-30	-11.0953
gio	-11.0954
mQ	-11.0958
/2021-0	-11.0959
bisc	-11.096
/19	-11.0968
%20201	-11.0971
olum	-11.0974
rez	-11.0975
kirche	-11.0975
ecure	-11.0981
gusta	-11.0981
toria	-11.0986
reme	-11.0986
creen	-11.099
solution	-11.0994
TAR	-11.0996
urth	-11.0999
engin	-11.1004
rchitect	-11.1006
358	-11.1007
sz	-11.1011
_10	-11.1012
016	-11.1012
%22	-11.1014
/2021/06/2021	-11.1016
ultur	-11.1016
acti	-11.1019
0039	-11.1021
%282	-11.1022
/03	-11.1023
ridge	-11.1028
03/2021	-11.1028
lease	-11.1029
688	-11.103
aru	-11.1037
tudies	-11.104
/202105	-11.1044
5579	-11.1044
_52	-11.1051
otte	-11.1054
ets	-11.1056
Igna	-11.1058
ducation	-11.1062
ventur	-11.1067
Communi	-11.1068
voor	-11.1068
7208	-11.1072
profil	-11.1073
/4_2	-11.1074
isplay	-11.1074
nalys	-11.108
progr	-11.108
endi	-11.1081
/28	-11.1083
chem	-11.1085
ilver	-11.109
rr	-11.1091
ditional	-11.1091
mobil	-11.1092
segur	-11.1097
/10.20	-11.1101
/4/7/	-11.1102
elektr	-11.1104
distri	-11.1104
mobilit	-11.1105
udget	-11.1105
cla	-11.1105
nnouncement	-11.1108
ouncil	-11.1108
IMPULS	-11.1109
vjes	-11.1109
schul	-11.1109
RACI	-11.111
rticles	-11.111
Stand	-11.1114
work	-11.1116
ountry	-11.112
/202106	-11.112
inclu	-11.1121
denkmal	-11.1122
tribu	-11.1122
/430	-11.1125
tax	-11.1126
ntroduction	-11.1126
Serv	-11.1128
curit	-11.1129
erie	-11.113
roject	-11.1131
/2020/07	-11.1131
telecharge	-11.1134
kjhyo	-11.1137
earning	-11.1137
ferma	-11.1138
=10.1.1.	-11.1139
ygiene	-11.114
Dokum	-11.114
Presentati	-11.1141
dential	-11.1141
macoes	-11.1145
Certifi	-11.1145
TACI	-11.1148
kjhyoK	-11.115
irecto	-11.115
golden	-11.1151
onomy	-11.1151
rriere	-11.1151
kalender	-11.1152
schreiben	-11.1152
00000000000	-11.1153
Attach	-11.1153
emoria	-11.1153
ourney	-11.1154
MISS	-11.1154
sicher	-11.1154
ewoo	-11.1155
III	-11.1155
NNNN	-11.1155
icles	-11.1156
quali	-11.1157
%2009%20	-11.1158
logy	-11.1158
securit	-11.1159
sblatt	-11.1159
namnde	-11.1159
litis	-11.1159
/2021/07/20	-11.1161
rule	-11.1161
archiv	-11.1161
Vf	-11.1161
stmary	-11.1161
konze	-11.1161
lamento	-11.1162
nstitut	-11.1162
trig	-11.1162
micro	-11.1162
IMPU	-11.1163
TION	-11.1165
uillet	-11.1166
-2021-202	-11.1166
582	-11.1167
serve	-11.1168
serkla	-11.1169
ealth	-11.117
andsoc	-11.1171
servi	-11.1174
ILLA	-11.1174
proc	-11.1175
728	-11.1177
schr	-11.1178
soft	-11.1178
2009%	-11.1179
0-005	-11.1181
vita	-11.1181
1/06/2021	-11.1183
ndale	-11.1183
statement	-11.1183
dyna	-11.1186
16112	-11.1187
cours	-11.1187
lianc	-11.1188
story	-11.1189
126	-11.1193
QUI	-11.1193
Contr	-11.1193
lectr	-11.1194
4321	-11.1194
city	-11.1196
nologi	-11.1197
06-2021-	-11.1197
Rev	-11.1197
itc	-11.1198
recla	-11.1199
PI	-11.12
4-183	-11.1201
ografi	-11.1201
digi	-11.1202
Port	-11.1204
8416	-11.1204
Informa	-11.1205
1/202106	-11.1205
Commit	-11.1207
ematic	-11.1209
IMP	-11.1209
Manu	-11.121
-09-2	-11.1212
rako	-11.1213
obj	-11.1216
7515	-11.1216
tamento	-11.1218
6296	-11.1219
produc	-11.1221
omado	-11.1223
yY	-11.1225
ploy	-11.1226
21051	-11.1229
ethod	-11.123
plo	-11.123
raci	-11.1234
opin	-11.1234
Event	-11.1237
kult	-11.1237
tchi	-11.1239
NEW	-11.124
ZWR	-11.124
tual	-11.1242
rence	-11.1245
mili	-11.1245
2672	-11.1246
raini	-11.1246
sparen	-11.1248
publ	-11.1251
townof	-11.1251
kirchen	-11.1253
eidi	-11.1253
Bene	-11.1254
Jun	-11.126
organi	-11.1263
uniq	-11.1266
02009	-11.1267
unic	-11.1269
urses	-11.1269
3%89	-11.1269
admi	-11.1271
102-	-11.1272
pape	-11.1272
uire	-11.1277
llect	-11.1277
hang	-11.1281
gnacio	-11.1282
=1000	-11.1284
5.2	-11.1287
174/	-11.1289
ultura	-11.1291
trom	-11.1291
della	-11.1292
meet	-11.1293
ople	-11.1297
haft	-11.1304
gE	-11.1308
16268	-11.1313
ORT	-11.1314
arrier	-11.1314
inari	-11.1315
arcel	-11.1315
POR	-11.1315
ortar	-11.1316
tzOj	-11.1318
mental	-11.1319
gram	-11.1319
lament	-11.1324
3020	-11.1325
electi	-11.1326
onomi	-11.133
kyr	-11.1333
nieru	-11.1333
ebe	-11.1334
ims	-11.1335
9001	-11.1338
unni	-11.1339
anti	-11.1341
phi	-11.1342
lemen	-11.1344
roup	-11.1344
erg	-11.1345
1_201	-11.1346
2107	-11.1346
hyo	-11.1348
Hei	-11.1353
Admi	-11.1354
2015	-11.1355
anno	-11.1357
ichte	-11.1363
duct	-11.1363
naba	-11.1366
Mi	-11.1373
bv	-11.1374
0141	-11.1376
ission	-11.1378
764	-11.1379
roje	-11.1381
aba	-11.1388
finit	-11.1397
jour	-11.14
Mode	-11.1401
tales	-11.1402
amara	-11.1404
shoo	-11.1406
gaz	-11.1407
reh	-11.1418
tober	-11.142
bloc	-11.1421
mily	-11.1421
alar	-11.1424
tinar	-11.1425
arra	-11.1429
%93%	-11.1429
mie	-11.1433
zion	-11.1433
203-	-11.1433
archi	-11.1435
held	-11.1437
manu	-11.1439
denti	-11.144
play	-11.1443
sax	-11.1443
augu	-11.1448
Gent	-11.1451
dated	-11.1452
/3/0/	-11.1454
eih	-11.1457
mejo	-11.1457
adea	-11.1458
atory	-11.1459
ications	-11.1465
asd	-11.1467
amant	-11.1469
-06-	-11.1472
guid	-11.1472
ural	-11.148
lara	-11.1481
ofth	-11.1482
word	-11.1492
well	-11.1493
323	-11.1494
lett	-11.1496
uals	-11.15
fact	-11.1509
%2017	-11.1509
-21_	-11.1512
rung	-11.1519
ervers	-11.152
resentation	-11.1522
aria	-11.1525
/4/	-11.1525
patc	-11.1533
etat	-11.154
daten	-11.1545
-29-	-11.1545
hiv	-11.1546
rust	-11.1546
Even	-11.155
spa	-11.1556
/000/0	-11.1556
anne	-11.1557
ntex	-11.1558
nergi	-11.1563
471	-11.1564
obili	-11.1567
utc	-11.1568
words	-11.157
endor	-11.1571
ruch	-11.1575
bridges	-11.1576
167	-11.1581
%2019	-11.1584
mary	-11.1586
dac	-11.1586
ulti	-11.1588
NDA	-11.159
IDS	-11.1593
tai	-11.1595
2014-0	-11.1595
uction	-11.1598
MDE	-11.16
YX	-11.1601
2020%20	-11.1602
mics	-11.1607
ype	-11.161
%2003.	-11.1613
zati	-11.1613
MP	-11.1619
PM	-11.1623
fin	-11.1625
tPa	-11.1625
572	-11.1625
/132	-11.1626
yi	-11.1627
-202	-11.1628
739	-11.1632
cta	-11.1633
hai	-11.1634
jL	-11.164
anie	-11.1641
zio	-11.1647
laci	-11.1648
lung	-11.1658
-2020-2	-11.1664
centr	-11.1667
nsch	-11.1671
table	-11.1672
uct	-11.1672
Nie	-11.1674
etag	-11.1675
-26	-11.1677
tments	-11.1678
Fle	-11.1678
368	-11.1679
nscript	-11.1681
attach	-11.1683
idland	-11.1685
4500	-11.1688
moz	-11.1688
muni	-11.1688
QU	-11.1691
dmin	-11.1693
compan	-11.1693
kla	-11.1696
ontrols	-11.1697
reti	-11.1697
hart	-11.1697
578	-11.1697
901	-11.1698
alte	-11.1699
atro	-11.1702
derver	-11.1706
ans	-11.1708
ibrary	-11.1714
408	-11.1715
ecip	-11.1722
ctat	-11.1725
stry	-11.1728
00008	-11.1735
lami	-11.1748
rma	-11.1752
FW	-11.1753
12.2	-11.1763
arna	-11.1763
Yx	-11.1766
ull	-11.1767
15/	-11.1768
3002	-11.1768
scal	-11.177
rona	-11.1771
trit	-11.1772
TIA	-11.1773
/2/5/	-11.1776
rtown	-11.1779
1703	-11.178
utes	-11.1789
003	-11.1795
oden	-11.1802
pres	-11.1803
gul	-11.1804
ead	-11.1806
ugh	-11.1809
-2014	-11.1812
00005	-11.1823
1805	-11.1826
/210	-11.1831
tCa	-11.1833
3302	-11.1844
embe	-11.1844
dDoc	-11.1845
nel	-11.1849
DT	-11.1849
/961	-11.1853
cree	-11.1855
Og	-11.1857
isb	-11.1859
prin	-11.1859
490	-11.1863
RQ	-11.1872
ktr	-11.1882
neo	-11.1884
935	-11.1887
des	-11.1888
rospekt	-11.189
flu	-11.1892
zv	-11.1895
011	-11.1896
anju	-11.1897
Trad	-11.1897
cul	-11.1902
INA	-11.1902
5182	-11.1905
Chr	-11.1919
93%	-11.1934
dj	-11.1936
histori	-11.1937
6%20	-11.1937
906	-11.1939
bien	-11.194
9_20	-11.1942
-02-2	-11.1942
elk	-11.1943
cda	-11.1947
ious	-11.1949
bn	-11.1957
dca	-11.1959
ileN	-11.196
ouri	-11.1961
ngle	-11.1961
IM	-11.1966
star	-11.1968
oisse	-11.197
stenj	-11.1972
irr	-11.1973
23_	-11.1975
trol	-11.1978
ections	-11.1979
rement	-11.1989
erverk	-11.1992
enior	-11.1992
neral	-11.1996
env	-11.2003
nach	-11.2004
RZ	-11.2005
Art	-11.2011
conse	-11.2012
olu	-11.2012
851	-11.2015
negat	-11.2017
sonn	-11.2023
/5/1	-11.2024
tyA	-11.2026
BAM	-11.2026
Dok	-11.2027
klet	-11.2034
1127	-11.2039
gQ	-11.204
latt	-11.2041
IO	-11.2044
ndex	-11.2046
LET	-11.2046
/2021/06/20210	-11.2051
rtre	-11.2054
Ser	-11.2055
-2022.	-11.2056
hola	-11.2061
histor	-11.2065
For	-11.2065
ilte	-11.2069
ncil	-11.2075
525	-11.2075
12-	-11.2076
dacc	-11.2078
PO	-11.2083
0180	-11.2085
8-1	-11.2088
gG	-11.209
398	-11.2091
carr	-11.2094
962	-11.2095
etz	-11.21
iff	-11.2103
toy	-11.211
rsam	-11.2111
6224	-11.2116
jY	-11.2124
Mus	-11.2129
cast	-11.2129
mest	-11.2133
055	-11.2136
erary	-11.2138
robi	-11.2139
hrese	-11.2143
trep	-11.2153
valu	-11.2154
0053	-11.2156
mber	-11.216
pei	-11.2168
scien	-11.217
mC	-11.2173
porte	-11.2176
GIT	-11.2179
shes	-11.218
hop	-11.2188
matt	-11.2196
vel	-11.2199
junt	-11.2201
ania	-11.2202
oping	-11.2205
814	-11.2206
etal	-11.2207
puc	-11.2214
crui	-11.2218
kq	-11.2219
orman	-11.2223
don	-11.2226
ntas	-11.2232
ional	-11.2235
cott	-11.2236
0-8	-11.2237
diat	-11.2241
Fou	-11.2246
arre	-11.2251
/3/3/	-11.2266
anc	-11.2268
934	-11.227
fina	-11.2277
ric	-11.2281
oL	-11.2285
6-3	-11.2294
/05	-11.2294
474	-11.2295
academi	-11.2295
970	-11.2301
-13	-11.2301
elm	-11.2304
Eva	-11.2318
5.6	-11.2327
orts	-11.2342
max	-11.2355
udo	-11.2355
2016/	-11.2356
mun	-11.2359
classi	-11.2359
104&	-11.2363
/201	-11.2363
yon	-11.2371
ille	-11.2373
tora	-11.2374
UD	-11.2382
irm	-11.2388
allor	-11.2393
uta	-11.2397
terve	-11.24
tende	-11.2404
ansa	-11.2418
gam	-11.2421
758	-11.2423
/4	-11.2423
lmo	-11.2424
2/17	-11.2428
ives	-11.2431
yz	-11.2432
sl	-11.2434
vT	-11.2438
14_	-11.2442
ropert	-11.2444
771	-11.2445
=11	-11.2448
GR	-11.2448
nam	-11.2456
6-18	-11.2462
ija	-11.2463
dtk	-11.2465
plat	-11.2472
ful	-11.2474
oton	-11.2475
8820	-11.2477
-2016	-11.2477
atal	-11.2486
ubc	-11.2487
nitori	-11.2492
cas	-11.2493
lem	-11.2498
Abl	-11.2514
gem	-11.2515
0/7	-11.2518
visi	-11.2529
-07-1	-11.2542
ener	-11.2545
nsa	-11.2546
inton	-11.2553
FA	-11.2554
/2011	-11.2559
RAC	-11.2559
-19-	-11.2567
GL	-11.2571
waa	-11.2576
%84	-11.2576
711	-11.258
arents	-11.259
erl	-11.2591
ommunity	-11.2593
adel	-11.2608
20200	-11.2612
465	-11.2635
rner	-11.2644
exe	-11.2646
natur	-11.2654
178	-11.2654
geme	-11.2655
chani	-11.2658
dMo	-11.2661
Qb	-11.2668
Aus	-11.2672
zia	-11.2679
upl	-11.2682
py	-11.2689
/171	-11.269
erial	-11.2691
424	-11.2693
mast	-11.27
ports	-11.2703
7/6	-11.2709
mcs	-11.2709
kale	-11.2721
div	-11.2722
los	-11.2722
/2016_	-11.2725
Play	-11.2726
745	-11.2738
tese	-11.2739
uan	-11.2746
_202	-11.2752
XU	-11.2753
ublications	-11.2766
herun	-11.2768
mma	-11.277
dip	-11.2775
hur	-11.2779
2016_	-11.2779
azur	-11.2781
rm	-11.2782
213	-11.2784
Dir	-11.2785
control	-11.2792
fly	-11.2795
gc	-11.2797
llis	-11.2799
inri	-11.2803
thew	-11.2804
gemen	-11.2805
erge	-11.2805
-14-2	-11.2809
kz	-11.2811
quis	-11.2813
cir	-11.2819
rken	-11.2821
cif	-11.2826
rains	-11.2841
/2017/1	-11.2847
itus	-11.2848
irc	-11.286
say	-11.287
kos	-11.2872
mlu	-11.2872
gol	-11.2872
10_1	-11.2878
43.	-11.2894
/08/	-11.2895
axon	-11.2896
akow	-11.2906
088	-11.2912
500	-11.2912
einf	-11.2915
sche	-11.292
fs	-11.2921
hU	-11.2934
Del	-11.2936
_26	-11.2956
dean	-11.2957
eve	-11.2959
CN	-11.2967
nanse	-11.2974
817	-11.2984
cart	-11.2986
sbl	-11.2987
_4_	-11.2989
amm	-11.2989
aker	-11.2991
736	-11.2991
DH	-11.2998
296	-11.2999
itz	-11.2999
compre	-11.3007
kag	-11.3011
auw	-11.3017
uel	-11.3018
mila	-11.3019
arl	-11.3027
510	-11.3036
10-	-11.3046
lete	-11.3048
olom	-11.3053
hel	-11.3073
NU	-11.3073
0%91	-11.3075
htb	-11.3078
mari	-11.3082
sali	-11.3084
find	-11.3096
vator	-11.3096
9-5	-11.3104
uca	-11.3111
44/	-11.3111
673	-11.3112
hra	-11.3113
=57	-11.3114
-5-	-11.3123
3137	-11.3126
2020-0	-11.3126
erat	-11.3138
tice	-11.3148
opo	-11.3149
ulp	-11.3154
omi	-11.316
cest	-11.3163
920	-11.3164
inte	-11.3171
cha	-11.3174
cro	-11.318
194	-11.3181
82018	-11.3194
_5	-11.3196
mor	-11.3198
Bg	-11.3202
orkshop	-11.3202
/78	-11.3205
chk	-11.3209
bya	-11.3215
352	-11.3217
hom	-11.3218
elco	-11.3219
-14-	-11.323
Cli	-11.323
hio	-11.3233
11-	-11.3234
niss	-11.3246
IR	-11.3254
05.	-11.3256
TH	-11.3271
445	-11.3283
reserv	-11.3291
libr	-11.3303
oste	-11.3318
/2020-	-11.332
cam	-11.3323
tolo	-11.3331
mmit	-11.3345
rum	-11.3347
ndas	-11.3353
tinc	-11.3361
uo	-11.3364
lb	-11.3387
acket	-11.339
deli	-11.3393
icht	-11.3401
We	-11.3405
alle	-11.3408
478	-11.341
bsu	-11.3417
Bl	-11.3419
BK	-11.3423
lech	-11.3424
bala	-11.3426
606	-11.3448
lini	-11.3448
richt	-11.3452
init	-11.3458
vend	-11.3461
vv	-11.3464
-2	-11.3473
etd	-11.3499
itsu	-11.3519
586	-11.3519
HF	-11.3521
fac	-11.3524
Gre	-11.3534
ND	-11.3542
427	-11.3544
sah	-11.3545
isr	-11.3553
resid	-11.3563
85/	-11.3573
Nr	-11.3584
polic	-11.3588
aller	-11.3593
AU	-11.3595
uN	-11.3597
16/	-11.3603
eJ	-11.3614
595	-11.3618
ks	-11.3636
trus	-11.3636
enov	-11.3643
Hea	-11.3645
Docs	-11.365
dres	-11.3652
plicati	-11.3658
Presen	-11.3668
pap	-11.3672
164	-11.3674
513	-11.3677
0.20	-11.3681
publica	-11.3685
imc	-11.3693
AP	-11.3696
resident	-11.3704
Inf	-11.3713
ution	-11.372
OB	-11.3722
Est	-11.3725
QO	-11.3735
ingle	-11.3738
ert	-11.3742
ily	-11.3752
%96%	-11.3757
YY	-11.3769
Fj	-11.3783
_04	-11.3789
aper	-11.379
9%2	-11.3794
/20130	-11.3799
ity	-11.3799
Imp	-11.3801
/2021-	-11.3813
cor	-11.3825
icker	-11.3825
uff	-11.3828
BS	-11.383
aky	-11.3831
780	-11.3837
ege	-11.3837
vers	-11.3846
Daten	-11.3847
RF	-11.3858
iU	-11.3863
Zm	-11.3864
rial	-11.3868
san	-11.3868
iq	-11.3873
356	-11.3878
459	-11.388
OE	-11.3881
CO	-11.3889
edin	-11.3915
348	-11.3915
fI	-11.3934
KI	-11.3937
NTR	-11.3946
envi	-11.3955
ADA	-11.3967
yd	-11.3996
eque	-11.4004
-2013	-11.4013
cCon	-11.4025
aison	-11.4028
pR	-11.403
uro	-11.4037
=40	-11.4064
uter	-11.4064
four	-11.4066
LE	-11.4088
ajaa	-11.4099
0319	-11.4111
Lig	-11.4112
-201	-11.4119
rsd	-11.4127
iko	-11.4128
versi	-11.4135
IF	-11.4138
ream	-11.4141
vey	-11.4153
iZ	-11.4159
sive	-11.4164
703	-11.4168
dad	-11.4173
8/	-11.4174
obi	-11.4176
aab	-11.4194
eum	-11.4198
ofu	-11.4209
yk	-11.4216
sW	-11.4222
/2021/07/2021	-11.4225
gue	-11.4241
Je	-11.4246
ram	-11.4251
ners	-11.4251
Fu	-11.4256
tch	-11.4261
lls	-11.4286
CL	-11.4298
Cov	-11.4318
pos	-11.4348
thaus	-11.4348
ilis	-11.4354
tori	-11.4359
tour	-11.4362
vat	-11.4367
ocu	-11.4371
irch	-11.4375
=64	-11.4375
north	-11.4379
git	-11.4418
jit	-11.4433
rsal	-11.444
saut	-11.444
ady	-11.4458
aeu	-11.4463
CS	-11.4475
tari	-11.4484
248/	-11.4488
rsc	-11.4492
clu	-11.4494
miss	-11.4507
yn	-11.453
151	-11.4531
tsu	-11.4543
omso	-11.4548
8112	-11.458
cfe	-11.4588
TD	-11.4588
nom	-11.462
_170	-11.4641
019	-11.4647
dju	-11.4651
4/0	-11.4652
/8/	-11.4675
_7	-11.4677
08_	-11.4686
8%8	-11.4713
120	-11.4714
ador	-11.472
NL	-11.4721
nova	-11.4722
fth	-11.4738
pY	-11.4743
hz	-11.4744
ruz	-11.4746
65/	-11.475
hm	-11.4755
nday	-11.4755
onna	-11.4767
demi	-11.4783
8/01/	-11.4797
inform	-11.4801
?_	-11.4815
Sys	-11.4816
pat	-11.4822
oning	-11.484
iaA	-11.4841
ys	-11.4847
emen	-11.4859
/73	-11.4859
she	-11.4862
_18	-11.4863
PK	-11.4867
iW	-11.4875
resp	-11.4886
dt	-11.4888
yI	-11.489
lac	-11.4895
rif	-11.4898
inal	-11.4905
aven	-11.4909
bard	-11.4909
Met	-11.493
ffa	-11.4942
Or	-11.4943
21-	-11.4956
319	-11.4956
iot	-11.4967
531	-11.4973
dade	-11.4974
sys	-11.498
lok	-11.4981
602	-11.4984
modifica	-11.4993
/2016/	-11.5004
EV	-11.5008
Pl	-11.5015
Kp	-11.5036
kwa	-11.5052
1624	-11.5054
zmi	-11.5057
webs	-11.5064
fea	-11.5097
eva	-11.5108
/9	-11.5134
EB	-11.5135
/225	-11.5142
prima	-11.5144
jo	-11.5145
tab	-11.5146
far	-11.5147
chri	-11.5155
ists	-11.5176
870	-11.519
mento	-11.519
produ	-11.5196
1705	-11.5198
IG	-11.5227
804	-11.5229
99/	-11.5232
/158	-11.5232
bU	-11.5237
Mar	-11.5252
imp	-11.5255
/39	-11.526
tU	-11.5273
bam	-11.5287
pag	-11.5311
223	-11.5321
lege	-11.533
aed	-11.5358
gT	-11.5381
eck	-11.5413
52-	-11.5422
dir	-11.5423
Dec	-11.5425
106	-11.5463
7_	-11.547
ais	-11.5479
ogra	-11.5483
nvers	-11.5489
six	-11.549
erver	-11.5492
rono	-11.551
exo	-11.5513
elease	-11.5539
wro	-11.5546
rv	-11.5553
01-	-11.5561
tR	-11.5573
isual	-11.5578
Cha	-11.5586
16-	-11.5626
uest	-11.5626
cka	-11.5638
sty	-11.5641
So	-11.5661
uments	-11.5669
sbro	-11.5703
0/00	-11.5711
nden	-11.5713
rso	-11.5717
ect	-11.5719
481	-11.5732
wo	-11.5744
000/	-11.5747
cto	-11.5771
kens	-11.5803
202107	-11.5814
889	-11.5828
RL	-11.5839
683	-11.5842
off	-11.585
ves	-11.5851
ante	-11.5869
wat	-11.5873
Tb	-11.5882
ui	-11.5887
015.	-11.59
schu	-11.5913
emi	-11.5941
11%20	-11.5951
428	-11.5951
Lf	-11.5958
advi	-11.597
orp	-11.5981
Emi	-11.5985
fid	-11.5991
_20180	-11.5996
pot	-11.6013
orca	-11.6017
2014-	-11.6025
amil	-11.606
ss	-11.608
mps	-11.6093
torm	-11.6104
vil	-11.611
1-19	-11.6117
aar	-11.6117
641	-11.6118
38&	-11.6137
dell	-11.6151
Of	-11.6176
He	-11.6177
lds	-11.619
0/	-11.6191
421	-11.6194
908	-11.6195
trut	-11.6199
fun	-11.621
jul	-11.6226
her	-11.6235
spe	-11.6237
mall	-11.6245
coin	-11.6262
gS	-11.6293
osu	-11.6316
001-	-11.6341
hild	-11.6341
aussch	-11.6346
nas	-11.6346
20%20	-11.6355
etr	-11.6366
78-	-11.6368
015	-11.6386
PLA	-11.6388
eeds	-11.6389
tta	-11.639
mP	-11.6417
303	-11.6427
aise	-11.6447
5/12	-11.6448
NB	-11.6455
arq	-11.6461
59.	-11.648
87-	-11.6488
453	-11.6501
emag	-11.6517
raT	-11.6541
1969	-11.6543
%89	-11.6557
ono	-11.6573
Mana	-11.6577
renz	-11.6583
ings	-11.6596
518	-11.6597
08-	-11.6603
9-9	-11.661
Agen	-11.6619
kp	-11.6626
cep	-11.6637
nj	-11.6646
tudy	-11.6649
rik	-11.6651
350	-11.6656
AW	-11.6666
Res	-11.667
rmat	-11.6674
eis	-11.6676
vm	-11.6679
ele	-11.6686
ako	-11.6692
dpr	-11.6696
sg	-11.6705
714	-11.6707
3-26	-11.6757
4%2	-11.6762
ova	-11.6768
ecd	-11.677
-02.	-11.679
ery	-11.6792
tons	-11.6805
/2021/03/2	-11.6808
rae	-11.683
vac	-11.6851
ema	-11.688
/2013/	-11.6881
403	-11.6881
dow	-11.6912
aut	-11.6918
_01_	-11.6925
scu	-11.6929
_19	-11.6991
uary	-11.7033
jek	-11.7057
8-5	-11.7076
ccd	-11.7095
ring	-11.7104
39	-11.7113
abb	-11.7116
derf	-11.7121
98/	-11.713
nR	-11.7157
oP	-11.7187
/3.	-11.7196
mso	-11.7206
/12/	-11.7206
mana	-11.7209
mte	-11.7221
128	-11.7235
zf	-11.7235
fus	-11.7236
ras	-11.7237
inas	-11.7239
kto	-11.7259
TK	-11.7262
825	-11.7292
ash	-11.7292
_3_	-11.7301
ail	-11.7311
/2103	-11.7323
WG	-11.7329
nb	-11.7331
eput	-11.7337
cation	-11.7338
erin	-11.7349
165	-11.7358
ALI	-11.7358
nior	-11.7361
etf	-11.7387
tere	-11.7403
1071	-11.7423
-17.	-11.7426
Bm	-11.744
ita	-11.7452
-20	-11.7464
/82	-11.7481
ital	-11.7494
/00	-11.7503
ITE	-11.7532
use	-11.7538
asf	-11.7553
nvest	-11.7554
gna	-11.7555
dele	-11.7557
nsd	-11.7561
tras	-11.7566
/2019/1	-11.7572
pol	-11.7574
lP	-11.759
ther	-11.7601
nair	-11.7603
hod	-11.7613
14.	-11.7613
-10/	-11.7619
344	-11.7637
yes	-11.7655
alu	-11.7656
eec	-11.7658
epa	-11.7664
75-	-11.7671
9_	-11.7686
ED	-11.7725
11/	-11.7778
HD	-11.7792
cama	-11.7804
beit	-11.7805
thr	-11.7831
xf	-11.7846
/2020/1	-11.7893
shu	-11.7898
rish	-11.79
012	-11.7935
atc	-11.7936
dsc	-11.7949
Li	-11.795
/142	-11.7956
lati	-11.7958
34/	-11.7981
Fa	-11.7985
/75	-11.8013
cI	-11.8041
Cort	-11.8054
unip	-11.807
pire	-11.8078
owo	-11.8085
11-1	-11.8102
86/	-11.8112
Off	-11.8121
nde	-11.8122
SES	-11.8125
edF	-11.8128
_071	-11.8129
Att	-11.8146
/_	-11.817
/01	-11.8178
/2018	-11.8179
lend	-11.8182
Ci	-11.8189
ocs	-11.8192
nI	-11.82
fie	-11.8202
ont	-11.8203
171	-11.8217
672	-11.822
rogramm	-11.8229
hc	-11.8255
els	-11.8258
zeni	-11.8262
lei	-11.8263
rimo	-11.8284
efi	-11.8286
-01	-11.8295
lma	-11.8298
lc	-11.8387
14-	-11.8393
tim	-11.8433
ray	-11.8501
/6	-11.8511
icat	-11.8519
viv	-11.8535
19/	-11.8544
andb	-11.8556
eder	-11.8568
70-	-11.8577
scb	-11.8667
ager	-11.8687
2182	-11.8698
rmes	-11.875
516	-11.8778
/71	-11.8801
66-	-11.8808
lass	-11.8813
gj	-11.8816
ndor	-11.8818
_21	-11.8821
fileman	-11.8837
ihr	-11.8878
mil	-11.8915
ksa	-11.8919
vaa	-11.8919
sr	-11.8921
ingRe	-11.8929
kro	-11.8942
/15-	-11.8947
yA	-11.8953
akay	-11.8954
nonli	-11.8981
rF	-11.9005
gens	-11.9005
tude	-11.9067
iS	-11.9068
mj	-11.9075
sel	-11.9075
iles	-11.9085
sei	-11.9089
719	-11.9101
_07	-11.913
Awa	-11.9169
wq	-11.9173
low	-11.9177
bdf	-11.9225
ekk	-11.9262
eline	-11.9285
stru	-11.9351
oba	-11.938
spor	-11.9404
565	-11.9409
721	-11.9445
jects	-11.9462
ection	-11.9473
ao	-11.9489
ruc	-11.9501
ord	-11.9508
lec	-11.9517
526	-11.9519
ivo	-11.9541
terp	-11.9573
xe	-11.9576
aman	-11.9603
nual	-11.9605
interp	-11.9639
ior	-11.9645
749	-11.9649
5_	-11.9649
sito	-11.9709
-7	-11.9745
dan	-11.9776
-3-	-11.9816
hg	-11.9833
Mp	-11.9866
radecomp	-11.991
urs	-11.9928
stor	-11.9935
bed	-11.9972
amt	-11.9995
29-	-12.0001
855	-12.0017
eturn	-12.0022
1209	-12.0058
mid	-12.0058
ues	-12.0067
cM	-12.0079
tose	-12.0095
sid	-12.01
cati	-12.012
3-4	-12.0123
ysa	-12.0134
energ	-12.0154
/0/12	-12.0164
mic	-12.0171
/202107	-12.0179
441	-12.0233
ternati	-12.0285
gli	-12.0299
Dk	-12.0301
ece	-12.0304
conso	-12.0329
joi	-12.033
hers	-12.0363
rue	-12.0388
Im	-12.0412
ums	-12.0424
ied	-12.0482
=29	-12.0489
Int	-12.0505
17_	-12.0522
ule	-12.0527
gy	-12.0552
6.1	-12.0559
met	-12.0564
rde	-12.0581
dun	-12.0585
char	-12.0594
bour	-12.0631
vD	-12.0638
Cons	-12.0659
sp	-12.0663
Let	-12.0667
mg	-12.0672
cru	-12.0715
374	-12.0808
27_	-12.0851
han	-12.0857
pM	-12.0861
cht	-12.0878
luci	-12.0911
nk	-12.0947
ungs	-12.0966
dni	-12.0988
1975	-12.1025
Rp	-12.1026
Wo	-12.103
fra	-12.1052
Ga	-12.1052
isbo	-12.11
6?	-12.1111
281	-12.1127
rads	-12.1169
stati	-12.1171
_00	-12.1193
lom	-12.1199
hist	-12.1239
ormati	-12.1249
527	-12.1256
179	-12.1269
8%9	-12.127
enbur	-12.1324
iu	-12.1341
-0	-12.1344
Lei	-12.1355
061	-12.1388
ego	-12.1405
9033	-12.1405
apan	-12.1426
tm	-12.1434
SY	-12.1507
93-	-12.1561
/202	-12.1608
ese	-12.1625
emel	-12.1673
Coll	-12.1681
02_	-12.1756
legi	-12.1763
lie	-12.1791
eige	-12.1803
zY	-12.1809
tizi	-12.1865
eny	-12.1915
ble	-12.1978
mens	-12.2118
uck	-12.2156
ncouncil	-12.217
/55	-12.2241
27-	-12.2264
_9	-12.2287
33.	-12.2316
etree	-12.2335
Per	-12.2346
deco	-12.2356
dz	-12.237
win	-12.238
rall	-12.2381
sdl	-12.2423
Eu	-12.2432
loca	-12.2477
enba	-12.2478
enb	-12.2479
QE	-12.2496
barr	-12.2521
mad	-12.2628
epo	-12.2643
ust	-12.2647
gY	-12.2708
ress	-12.2744
lins	-12.2773
nS	-12.2781
oj	-12.2786
46-	-12.279
southe	-12.279
erfor	-12.2842
17-	-12.2843
nse	-12.2863
_%	-12.2898
44-	-12.2919
esi	-12.2932
ntos	-12.2937
/53	-12.2985
ye	-12.3023
AIN	-12.3039
11.	-12.3056
69.	-12.3057
lp	-12.3062
Noti	-12.3066
iesin	-12.3109
tM	-12.3143
811	-12.3175
447	-12.3177
sfo	-12.3212
wm	-12.3213
20-0	-12.3214
.2018.	-12.3228
4410	-12.3289
Ye	-12.3301
eres	-12.3343
17.	-12.3367
81/	-12.3372
925	-12.3386
6/20210	-12.3459
HP	-12.3483
633	-12.3504
04-	-12.3529
onsor	-12.3573
emio	-12.3606
=201	-12.3655
Vs	-12.3658
ixe	-12.3703
1006	-12.3706
cie	-12.3777
nm	-12.3803
FD	-12.3872
mier	-12.3873
eiste	-12.3901
-6-	-12.3917
89.	-12.3967
eau	-12.4
lter	-12.4004
317	-12.4009
dio	-12.4023
ze	-12.4037
237	-12.4065
Fr	-12.4071
kad	-12.4103
cae	-12.4211
1934	-12.4217
Uz	-12.4247
bh	-12.4283
pad	-12.4337
Xs	-12.4374
_02	-12.4394
oads	-12.4499
zie	-12.4597
191	-12.4665
pF	-12.4717
Men	-12.4732
Ka	-12.4736
98.	-12.4768
YZ	-12.4776
asco	-12.4798
ount	-12.4826
8%20	-12.4831
/35	-12.4872
fsh	-12.4881
sj	-12.4921
acc	-12.4925
unds	-12.4928
fla	-12.4928
hre	-12.4963
tb	-12.4963
37/	-12.4967
sf	-12.4967
tar	-12.4993
